#include "model.h"


// Name of model tflite flatbuffer.
const unsigned char multi_motions_model_tflite_name[] = {"model"};

// Model data tflite flatbuffer.
const unsigned char multi_motions_model_tflite[] = {
  0x1c, 0x00, 0x00, 0x00, 0x54, 0x46, 0x4c, 0x33, 0x00, 0x00, 0x12, 0x00,
  0x1c, 0x00, 0x04, 0x00, 0x08, 0x00, 0x0c, 0x00, 0x10, 0x00, 0x14, 0x00,
  0x00, 0x00, 0x18, 0x00, 0x12, 0x00, 0x00, 0x00, 0x03, 0x00, 0x00, 0x00,
  0xe8, 0x2c, 0x00, 0x00, 0x10, 0x00, 0x00, 0x00, 0x1c, 0x00, 0x00, 0x00,
  0x2c, 0x00, 0x00, 0x00, 0x0c, 0x00, 0x00, 0x00, 0x01, 0x00, 0x00, 0x00,
  0x3c, 0x02, 0x00, 0x00, 0x01, 0x00, 0x00, 0x00, 0x10, 0x02, 0x00, 0x00,
  0x0f, 0x00, 0x00, 0x00, 0x54, 0x4f, 0x43, 0x4f, 0x20, 0x43, 0x6f, 0x6e,
  0x76, 0x65, 0x72, 0x74, 0x65, 0x64, 0x2e, 0x00, 0x30, 0x00, 0x00, 0x00,
  0xdc, 0x01, 0x00, 0x00, 0xd0, 0x01, 0x00, 0x00, 0xc4, 0x01, 0x00, 0x00,
  0xb8, 0x01, 0x00, 0x00, 0xac, 0x01, 0x00, 0x00, 0xa0, 0x01, 0x00, 0x00,
  0x94, 0x01, 0x00, 0x00, 0x88, 0x01, 0x00, 0x00, 0x7c, 0x01, 0x00, 0x00,
  0x70, 0x01, 0x00, 0x00, 0x64, 0x01, 0x00, 0x00, 0x58, 0x01, 0x00, 0x00,
  0x4c, 0x01, 0x00, 0x00, 0x40, 0x01, 0x00, 0x00, 0x34, 0x01, 0x00, 0x00,
  0x28, 0x01, 0x00, 0x00, 0x1c, 0x01, 0x00, 0x00, 0x10, 0x01, 0x00, 0x00,
  0x04, 0x01, 0x00, 0x00, 0xfc, 0x00, 0x00, 0x00, 0xf0, 0x00, 0x00, 0x00,
  0xe4, 0x00, 0x00, 0x00, 0xdc, 0x00, 0x00, 0x00, 0xd4, 0x00, 0x00, 0x00,
  0xcc, 0x00, 0x00, 0x00, 0xc4, 0x00, 0x00, 0x00, 0xbc, 0x00, 0x00, 0x00,
  0xb4, 0x00, 0x00, 0x00, 0xac, 0x00, 0x00, 0x00, 0xa4, 0x00, 0x00, 0x00,
  0x9c, 0x00, 0x00, 0x00, 0x94, 0x00, 0x00, 0x00, 0x8c, 0x00, 0x00, 0x00,
  0x84, 0x00, 0x00, 0x00, 0x7c, 0x00, 0x00, 0x00, 0x74, 0x00, 0x00, 0x00,
  0x6c, 0x00, 0x00, 0x00, 0x64, 0x00, 0x00, 0x00, 0x5c, 0x00, 0x00, 0x00,
  0x50, 0x00, 0x00, 0x00, 0x48, 0x00, 0x00, 0x00, 0x40, 0x00, 0x00, 0x00,
  0x38, 0x00, 0x00, 0x00, 0x30, 0x00, 0x00, 0x00, 0x24, 0x00, 0x00, 0x00,
  0x18, 0x00, 0x00, 0x00, 0x10, 0x00, 0x00, 0x00, 0x04, 0x00, 0x00, 0x00,
  0x36, 0xd4, 0xff, 0xff, 0x1c, 0x01, 0x00, 0x00, 0x84, 0xda, 0xff, 0xff,
  0x42, 0xd4, 0xff, 0xff, 0x34, 0x03, 0x00, 0x00, 0x4a, 0xd4, 0xff, 0xff,
  0x7c, 0x09, 0x00, 0x00, 0x98, 0xda, 0xff, 0xff, 0x9c, 0xda, 0xff, 0xff,
  0xa0, 0xda, 0xff, 0xff, 0xa4, 0xda, 0xff, 0xff, 0x62, 0xd4, 0xff, 0xff,
  0x08, 0x0c, 0x00, 0x00, 0xb0, 0xda, 0xff, 0xff, 0xb4, 0xda, 0xff, 0xff,
  0xb8, 0xda, 0xff, 0xff, 0xbc, 0xda, 0xff, 0xff, 0xc0, 0xda, 0xff, 0xff,
  0xc4, 0xda, 0xff, 0xff, 0xc8, 0xda, 0xff, 0xff, 0xcc, 0xda, 0xff, 0xff,
  0xd0, 0xda, 0xff, 0xff, 0xd4, 0xda, 0xff, 0xff, 0xd8, 0xda, 0xff, 0xff,
  0xdc, 0xda, 0xff, 0xff, 0xe0, 0xda, 0xff, 0xff, 0xe4, 0xda, 0xff, 0xff,
  0xe8, 0xda, 0xff, 0xff, 0xec, 0xda, 0xff, 0xff, 0xf0, 0xda, 0xff, 0xff,
  0xae, 0xd4, 0xff, 0xff, 0x4c, 0x15, 0x00, 0x00, 0xb6, 0xd4, 0xff, 0xff,
  0x0c, 0x16, 0x00, 0x00, 0x04, 0xdb, 0xff, 0xff, 0xc2, 0xd4, 0xff, 0xff,
  0xe8, 0x16, 0x00, 0x00, 0xca, 0xd4, 0xff, 0xff, 0x64, 0x17, 0x00, 0x00,
  0xd2, 0xd4, 0xff, 0xff, 0x08, 0x18, 0x00, 0x00, 0xda, 0xd4, 0xff, 0xff,
  0xe0, 0x19, 0x00, 0x00, 0xe2, 0xd4, 0xff, 0xff, 0x7c, 0x1a, 0x00, 0x00,
  0xea, 0xd4, 0xff, 0xff, 0x80, 0x1b, 0x00, 0x00, 0xf2, 0xd4, 0xff, 0xff,
  0x00, 0x1f, 0x00, 0x00, 0xfa, 0xd4, 0xff, 0xff, 0x08, 0x20, 0x00, 0x00,
  0x02, 0xd5, 0xff, 0xff, 0x7c, 0x20, 0x00, 0x00, 0x0a, 0xd5, 0xff, 0xff,
  0xe0, 0x20, 0x00, 0x00, 0x12, 0xd5, 0xff, 0xff, 0x3c, 0x21, 0x00, 0x00,
  0x1a, 0xd5, 0xff, 0xff, 0x98, 0x21, 0x00, 0x00, 0x22, 0xd5, 0xff, 0xff,
  0xf4, 0x21, 0x00, 0x00, 0x2a, 0xd5, 0xff, 0xff, 0x50, 0x22, 0x00, 0x00,
  0x32, 0xd5, 0xff, 0xff, 0xac, 0x22, 0x00, 0x00, 0x3a, 0xd5, 0xff, 0xff,
  0x08, 0x23, 0x00, 0x00, 0x42, 0xd5, 0xff, 0xff, 0x64, 0x23, 0x00, 0x00,
  0x4a, 0xd5, 0xff, 0xff, 0xc8, 0x23, 0x00, 0x00, 0x98, 0xdb, 0xff, 0xff,
  0x05, 0x00, 0x00, 0x00, 0x31, 0x2e, 0x35, 0x2e, 0x30, 0x00, 0x00, 0x00,
  0x08, 0x00, 0x0c, 0x00, 0x04, 0x00, 0x08, 0x00, 0x08, 0x00, 0x00, 0x00,
  0x08, 0x00, 0x00, 0x00, 0x2f, 0x00, 0x00, 0x00, 0x13, 0x00, 0x00, 0x00,
  0x6d, 0x69, 0x6e, 0x5f, 0x72, 0x75, 0x6e, 0x74, 0x69, 0x6d, 0x65, 0x5f,
  0x76, 0x65, 0x72, 0x73, 0x69, 0x6f, 0x6e, 0x00, 0xdc, 0xe1, 0xff, 0xff,
  0x20, 0x00, 0x00, 0x00, 0x14, 0x00, 0x00, 0x00, 0x08, 0x00, 0x00, 0x00,
  0x88, 0x23, 0x00, 0x00, 0x01, 0x00, 0x00, 0x00, 0x18, 0x00, 0x00, 0x00,
  0x01, 0x00, 0x00, 0x00, 0x1b, 0x00, 0x00, 0x00, 0x2e, 0x00, 0x00, 0x00,
  0x34, 0x0e, 0x00, 0x00, 0xc4, 0x07, 0x00, 0x00, 0xbc, 0x13, 0x00, 0x00,
  0xac, 0x14, 0x00, 0x00, 0x94, 0x0b, 0x00, 0x00, 0xd4, 0x1f, 0x00, 0x00,
  0x18, 0x0a, 0x00, 0x00, 0x0c, 0x08, 0x00, 0x00, 0x7c, 0x15, 0x00, 0x00,
  0x18, 0x0f, 0x00, 0x00, 0x88, 0x20, 0x00, 0x00, 0x74, 0x16, 0x00, 0x00,
  0x00, 0x09, 0x00, 0x00, 0x78, 0x18, 0x00, 0x00, 0x7c, 0x0c, 0x00, 0x00,
  0x3c, 0x21, 0x00, 0x00, 0xf8, 0x00, 0x00, 0x00, 0xfc, 0x0f, 0x00, 0x00,
  0x04, 0x19, 0x00, 0x00, 0x00, 0x11, 0x00, 0x00, 0xf0, 0x21, 0x00, 0x00,
  0xdc, 0x19, 0x00, 0x00, 0x78, 0x11, 0x00, 0x00, 0xc0, 0x15, 0x00, 0x00,
  0xf0, 0x12, 0x00, 0x00, 0x00, 0x1f, 0x00, 0x00, 0x54, 0x1d, 0x00, 0x00,
  0x58, 0x0d, 0x00, 0x00, 0x3c, 0x08, 0x00, 0x00, 0x90, 0x1e, 0x00, 0x00,
  0x40, 0x0e, 0x00, 0x00, 0xc0, 0x0c, 0x00, 0x00, 0xcc, 0x1f, 0x00, 0x00,
  0x34, 0x00, 0x00, 0x00, 0x94, 0x0a, 0x00, 0x00, 0x88, 0x20, 0x00, 0x00,
  0x20, 0x09, 0x00, 0x00, 0x30, 0x10, 0x00, 0x00, 0x44, 0x21, 0x00, 0x00,
  0x24, 0x0f, 0x00, 0x00, 0x8c, 0x0b, 0x00, 0x00, 0x00, 0x22, 0x00, 0x00,
  0xa8, 0x11, 0x00, 0x00, 0x28, 0x12, 0x00, 0x00, 0x68, 0x22, 0x00, 0x00,
  0x70, 0x14, 0x00, 0x00, 0xae, 0xdd, 0xff, 0xff, 0x00, 0x00, 0x00, 0x03,
  0x10, 0x00, 0x00, 0x00, 0x2e, 0x00, 0x00, 0x00, 0x1c, 0x00, 0x00, 0x00,
  0x34, 0x00, 0x00, 0x00, 0x04, 0x00, 0x00, 0x00, 0x01, 0x00, 0x00, 0x00,
  0x20, 0x00, 0x00, 0x00, 0x01, 0x00, 0x00, 0x00, 0x08, 0x00, 0x00, 0x00,
  0x17, 0x00, 0x00, 0x00, 0x6d, 0x61, 0x78, 0x5f, 0x70, 0x6f, 0x6f, 0x6c,
  0x69, 0x6e, 0x67, 0x31, 0x64, 0x5f, 0x31, 0x2f, 0x4d, 0x61, 0x78, 0x50,
  0x6f, 0x6f, 0x6c, 0x00, 0x04, 0xe3, 0xff, 0xff, 0x2c, 0x00, 0x00, 0x00,
  0x20, 0x00, 0x00, 0x00, 0x14, 0x00, 0x00, 0x00, 0x04, 0x00, 0x00, 0x00,
  0x01, 0x00, 0x00, 0x00, 0x00, 0x00, 0x00, 0x00, 0x00, 0x00, 0x00, 0x00,
  0x01, 0x00, 0x00, 0x00, 0x00, 0x00, 0x80, 0x3f, 0x01, 0x00, 0x00, 0x00,
  0x00, 0x00, 0x7f, 0x43, 0x01, 0x00, 0x00, 0x00, 0x00, 0x00, 0x00, 0x00,
  0x2e, 0xde, 0xff, 0xff, 0x00, 0x00, 0x00, 0x03, 0x10, 0x00, 0x00, 0x00,
  0x2d, 0x00, 0x00, 0x00, 0x1c, 0x00, 0x00, 0x00, 0x3c, 0x00, 0x00, 0x00,
  0x04, 0x00, 0x00, 0x00, 0x20, 0x00, 0x00, 0x00, 0x01, 0x00, 0x00, 0x00,
  0x03, 0x00, 0x00, 0x00, 0x10, 0x00, 0x00, 0x00, 0x1c, 0x00, 0x00, 0x00,
  0x63, 0x6f, 0x6e, 0x76, 0x31, 0x64, 0x5f, 0x33, 0x2f, 0x63, 0x6f, 0x6e,
  0x76, 0x31, 0x64, 0x2f, 0x45, 0x78, 0x70, 0x61, 0x6e, 0x64, 0x44, 0x69,
  0x6d, 0x73, 0x5f, 0x31, 0x00, 0x00, 0x00, 0x00, 0x8c, 0xe3, 0xff, 0xff,
  0x30, 0x00, 0x00, 0x00, 0x24, 0x00, 0x00, 0x00, 0x18, 0x00, 0x00, 0x00,
  0x04, 0x00, 0x00, 0x00, 0x01, 0x00, 0x00, 0x00, 0x77, 0x00, 0x00, 0x00,
  0x00, 0x00, 0x00, 0x00, 0x00, 0x00, 0x00, 0x00, 0x01, 0x00, 0x00, 0x00,
  0x2d, 0xea, 0xd6, 0x3b, 0x01, 0x00, 0x00, 0x00, 0x85, 0xc5, 0x64, 0x3f,
  0x01, 0x00, 0x00, 0x00, 0x00, 0x61, 0x47, 0xbf, 0x00, 0x06, 0x00, 0x00,
  0x57, 0x56, 0x78, 0x71, 0x7f, 0x34, 0x47, 0x97, 0x78, 0x9b, 0x6c, 0x3c,
  0x7a, 0x4f, 0x62, 0x51, 0x73, 0x78, 0x9c, 0x6b, 0x5c, 0x78, 0x50, 0xa7,
  0x8f, 0x78, 0x87, 0x74, 0x6d, 0x62, 0x82, 0x70, 0x4a, 0x63, 0x7a, 0x70,
  0x84, 0x6c, 0x5c, 0x2b, 0x78, 0x75, 0x64, 0x65, 0x8a, 0x7f, 0x8b, 0x7e,
  0x6b, 0x74, 0x5e, 0x8b, 0x93, 0x8c, 0x85, 0x5b, 0x7e, 0x71, 0x8f, 0x70,
  0x8d, 0x82, 0x8c, 0xb4, 0x73, 0x82, 0x8d, 0x59, 0x78, 0x99, 0x7a, 0x9d,
  0x89, 0x41, 0x5c, 0x59, 0x73, 0x6d, 0x7e, 0x97, 0x89, 0x8e, 0x53, 0x71,
  0x62, 0xff, 0x61, 0x6f, 0x5f, 0x4e, 0x92, 0x6e, 0x83, 0x6d, 0x8a, 0x83,
  0x8b, 0x7a, 0x49, 0x94, 0x75, 0x87, 0x79, 0x7c, 0x66, 0x43, 0x5a, 0x8e,
  0xa7, 0x60, 0x7b, 0x91, 0xaf, 0x51, 0x77, 0x75, 0x78, 0x9b, 0x7c, 0x33,
  0x73, 0x30, 0x75, 0x72, 0x94, 0x6e, 0x55, 0x6c, 0xad, 0x53, 0x75, 0x56,
  0x99, 0x90, 0x98, 0x5d, 0x8f, 0x41, 0x9a, 0x8c, 0x78, 0x7f, 0xb1, 0x3e,
  0x63, 0x64, 0x42, 0x74, 0x72, 0xa5, 0x58, 0x6c, 0x7f, 0x7b, 0x82, 0x7c,
  0x59, 0x66, 0x84, 0x7d, 0x7e, 0x33, 0x61, 0x61, 0x87, 0x67, 0x84, 0x96,
  0x5a, 0x2d, 0x64, 0x5b, 0x68, 0x75, 0x7b, 0x35, 0x80, 0x17, 0x7e, 0x5d,
  0x8a, 0x51, 0x8e, 0xa3, 0x64, 0x34, 0x6b, 0x62, 0x92, 0x53, 0x52, 0x4f,
  0x91, 0x63, 0x83, 0x5f, 0x88, 0x5e, 0x5c, 0x6c, 0x94, 0xb7, 0x5f, 0x66,
  0x6c, 0x7c, 0x70, 0x68, 0x58, 0x8c, 0x66, 0x78, 0x6c, 0x61, 0x74, 0x3c,
  0x64, 0x1d, 0x7c, 0x3a, 0x67, 0xa2, 0x7f, 0x65, 0x7d, 0x87, 0x50, 0x75,
  0x6a, 0x99, 0x60, 0x68, 0x85, 0x93, 0x86, 0x92, 0x95, 0x7e, 0x80, 0x33,
  0x78, 0x51, 0x81, 0x7c, 0xb2, 0x6d, 0x3d, 0x77, 0x4b, 0x4f, 0x73, 0x69,
  0x27, 0x41, 0x64, 0x50, 0xce, 0x8e, 0xb8, 0x77, 0x42, 0x7b, 0x38, 0x00,
  0x8c, 0x5a, 0x63, 0x46, 0x4b, 0x36, 0x67, 0x54, 0x5d, 0x42, 0x91, 0x69,
  0x62, 0x31, 0x8c, 0x3a, 0x78, 0x55, 0x59, 0x4a, 0x63, 0x63, 0x97, 0x30,
  0x8e, 0x69, 0x67, 0x78, 0x6b, 0x83, 0x87, 0x4c, 0x5e, 0x84, 0x4e, 0x69,
  0x82, 0x8e, 0x64, 0x43, 0x6d, 0x78, 0x8e, 0x86, 0x89, 0x4b, 0x5e, 0x56,
  0x8f, 0x5f, 0x59, 0x58, 0x7d, 0x6b, 0x85, 0x3c, 0x67, 0x85, 0x7d, 0x74,
  0x93, 0x80, 0x7f, 0x8f, 0x63, 0x86, 0x6f, 0x6b, 0x5a, 0x66, 0x7c, 0x32,
  0xa5, 0x7c, 0x42, 0x48, 0x86, 0x73, 0x87, 0x78, 0x60, 0xae, 0x99, 0xab,
  0x6b, 0x5c, 0x85, 0xa5, 0x51, 0x5a, 0xad, 0x94, 0x65, 0xaa, 0x89, 0x52,
  0x78, 0x8d, 0x64, 0x5a, 0x48, 0x34, 0x73, 0x90, 0x6b, 0x66, 0xa1, 0x61,
  0x77, 0x78, 0x71, 0x96, 0x77, 0x7e, 0xa7, 0x8e, 0x8b, 0x72, 0x5b, 0x7e,
  0x9d, 0x7e, 0x83, 0x2f, 0x6c, 0x4f, 0x8a, 0x69, 0xb2, 0x42, 0x75, 0x4b,
  0x60, 0x92, 0x81, 0x3e, 0x54, 0x79, 0x79, 0x52, 0x60, 0xce, 0x80, 0x8b,
  0x70, 0x63, 0x85, 0x7d, 0x5e, 0xa6, 0x7a, 0xc7, 0xab, 0x6c, 0x4a, 0x7c,
  0x78, 0x7b, 0x58, 0x7b, 0x4d, 0x7a, 0x45, 0x53, 0x76, 0x24, 0x8b, 0x53,
  0x98, 0x78, 0x7e, 0x91, 0x5d, 0x6c, 0x7d, 0x7b, 0x64, 0x69, 0x6e, 0x76,
  0x66, 0x85, 0x8d, 0x79, 0x7b, 0x6c, 0x5b, 0x89, 0x7f, 0xac, 0x90, 0x51,
  0x8d, 0x61, 0x83, 0x54, 0x62, 0x7c, 0x6e, 0x50, 0x8c, 0x98, 0x32, 0x67,
  0x83, 0x78, 0x61, 0x43, 0x85, 0x85, 0x87, 0x6e, 0x61, 0x70, 0x59, 0x55,
  0x6d, 0x89, 0x54, 0x87, 0x66, 0x33, 0x61, 0x42, 0x75, 0x70, 0x64, 0x54,
  0x81, 0x47, 0x56, 0xa8, 0x5a, 0x94, 0x67, 0x71, 0x84, 0x87, 0x4f, 0x60,
  0x46, 0x88, 0x56, 0x6e, 0x4e, 0x48, 0x84, 0x73, 0x74, 0x50, 0x9c, 0x81,
  0x89, 0x5a, 0x73, 0x7f, 0x78, 0x97, 0x97, 0x7a, 0x78, 0x5c, 0xa3, 0x8e,
  0x55, 0x5f, 0x58, 0x66, 0x96, 0x62, 0x56, 0x4c, 0x72, 0x6e, 0x79, 0x5f,
  0x57, 0x6b, 0x73, 0x69, 0x55, 0x65, 0x63, 0x84, 0x67, 0x7b, 0x68, 0x5d,
  0x4e, 0x75, 0x82, 0x6b, 0x71, 0x57, 0x59, 0x62, 0x5c, 0x69, 0x86, 0x6b,
  0x5d, 0x41, 0x84, 0x5b, 0x63, 0x84, 0x74, 0x59, 0x7e, 0x7d, 0x71, 0x82,
  0x79, 0x78, 0x9d, 0x66, 0x69, 0x4e, 0x85, 0x40, 0x98, 0x5b, 0x61, 0x68,
  0x73, 0x6c, 0x93, 0xb9, 0x5d, 0x93, 0x85, 0x82, 0x79, 0xa5, 0x75, 0x65,
  0x68, 0xbf, 0x88, 0x89, 0x66, 0x67, 0x71, 0x82, 0x58, 0x81, 0x67, 0x7f,
  0x5f, 0x5c, 0x6d, 0x83, 0x95, 0x78, 0x6e, 0x98, 0x57, 0x62, 0x89, 0x41,
  0x65, 0x6f, 0x89, 0x79, 0x80, 0x7e, 0x81, 0x7a, 0x68, 0x2b, 0x7f, 0x86,
  0x6b, 0x70, 0x51, 0x1e, 0x5d, 0x70, 0x7e, 0x91, 0x65, 0x88, 0x84, 0x4e,
  0x78, 0x53, 0x84, 0x59, 0x82, 0x92, 0x8b, 0x7d, 0x7c, 0x93, 0x62, 0x94,
  0x9c, 0x8a, 0x8b, 0x8e, 0x7d, 0xb8, 0x78, 0x6e, 0x69, 0x6d, 0x8a, 0xa6,
  0x83, 0x43, 0x84, 0x86, 0x76, 0x78, 0x77, 0x49, 0x52, 0x64, 0x4e, 0x72,
  0x62, 0x69, 0x85, 0x8f, 0x8c, 0x9a, 0x7f, 0x75, 0x77, 0x6c, 0x69, 0x7f,
  0x5a, 0x49, 0x57, 0x83, 0x71, 0x6a, 0x80, 0xa2, 0x82, 0x67, 0x56, 0x7d,
  0x7c, 0x87, 0x8a, 0x7c, 0x55, 0x46, 0x87, 0x60, 0x73, 0x8f, 0x49, 0x49,
  0x51, 0x95, 0x8a, 0x7f, 0x91, 0x94, 0x76, 0x53, 0x83, 0x22, 0x73, 0x63,
  0x69, 0x6e, 0x63, 0x25, 0x66, 0x7e, 0x9a, 0x7d, 0x55, 0xdb, 0x7b, 0x6e,
  0x82, 0x33, 0x90, 0x77, 0x71, 0x92, 0x62, 0x36, 0x68, 0x91, 0x86, 0x58,
  0x64, 0x5c, 0x52, 0x93, 0x87, 0x3a, 0x8c, 0x70, 0x39, 0x83, 0x63, 0x82,
  0x54, 0x3e, 0x51, 0x75, 0x4e, 0x9f, 0x6a, 0x64, 0x74, 0x75, 0x6a, 0x77,
  0x12, 0x4c, 0x6a, 0x90, 0x7f, 0x50, 0x54, 0x97, 0x5b, 0x66, 0x0f, 0x3b,
  0x82, 0x64, 0x55, 0x3d, 0x7d, 0x64, 0x4f, 0x73, 0x28, 0x4e, 0x2a, 0x6c,
  0x63, 0x58, 0x37, 0x49, 0x31, 0x6c, 0x76, 0x72, 0x4b, 0x54, 0x5b, 0x42,
  0x7d, 0x39, 0x7d, 0x5d, 0x82, 0x66, 0x57, 0x7b, 0x4a, 0x23, 0x4e, 0x7e,
  0x84, 0x81, 0x74, 0x41, 0x98, 0x4f, 0x5d, 0x81, 0x5e, 0x7b, 0x80, 0x55,
  0x4d, 0xae, 0x55, 0x91, 0x76, 0x69, 0x7e, 0x82, 0x81, 0x63, 0x54, 0x86,
  0x7e, 0x57, 0x7d, 0x57, 0x87, 0x8c, 0x41, 0x5d, 0x5a, 0x5a, 0x84, 0xa1,
  0x4b, 0x71, 0x58, 0x88, 0x5f, 0x64, 0x87, 0x45, 0x54, 0x89, 0xab, 0xa2,
  0x53, 0x59, 0x94, 0x8c, 0x5a, 0x2d, 0x6a, 0x55, 0x7a, 0x70, 0x7c, 0x97,
  0x76, 0x58, 0x88, 0x6e, 0x6b, 0x4a, 0x91, 0x8b, 0x7b, 0x1f, 0x59, 0x62,
  0x9b, 0x80, 0x8e, 0xc5, 0x5c, 0x5d, 0x7c, 0x3c, 0x80, 0x6b, 0x7b, 0x47,
  0x80, 0x68, 0x78, 0x64, 0x72, 0x48, 0x74, 0x8a, 0x89, 0x86, 0x66, 0x75,
  0x60, 0x8e, 0x6c, 0x60, 0x59, 0x4f, 0x75, 0x66, 0x8b, 0x63, 0x67, 0x77,
  0x82, 0x3f, 0x5e, 0x66, 0x5a, 0x7c, 0x55, 0x87, 0x89, 0x76, 0x81, 0x78,
  0x83, 0x91, 0x8e, 0x4b, 0x87, 0x98, 0x90, 0x81, 0x92, 0x83, 0x7f, 0x97,
  0x5b, 0x69, 0x85, 0x6e, 0x79, 0x56, 0x52, 0x78, 0x53, 0x45, 0x72, 0x39,
  0x75, 0x67, 0x9a, 0x21, 0x92, 0x76, 0x87, 0x69, 0x58, 0x60, 0x81, 0x6c,
  0x68, 0xa8, 0x50, 0x80, 0x8b, 0x5e, 0x99, 0x61, 0x83, 0x5b, 0x48, 0x7b,
  0x70, 0x8f, 0x8e, 0x74, 0x4b, 0xa5, 0x7d, 0x6a, 0x78, 0x72, 0x6c, 0x8a,
  0x47, 0x90, 0x86, 0x7b, 0x76, 0xac, 0x81, 0x85, 0x49, 0x9a, 0x79, 0x82,
  0x88, 0x7b, 0x52, 0x73, 0x50, 0x3d, 0x7e, 0x44, 0x6b, 0x71, 0x24, 0x4f,
  0x3a, 0x6e, 0x63, 0x4d, 0x4c, 0x85, 0x38, 0x53, 0x93, 0x20, 0x7e, 0x79,
  0x57, 0x4c, 0x20, 0x25, 0x69, 0x55, 0x2b, 0x62, 0x7c, 0x50, 0x3b, 0x57,
  0x9f, 0x8b, 0x84, 0x81, 0x62, 0x7b, 0x60, 0xd0, 0x9a, 0x7a, 0x58, 0x62,
  0x82, 0x60, 0x8e, 0xa7, 0x7c, 0x65, 0x67, 0x7d, 0x8d, 0x66, 0x81, 0x7b,
  0x7f, 0x2f, 0x89, 0x74, 0x6f, 0x8a, 0x67, 0x5a, 0x9a, 0x73, 0x6b, 0x92,
  0x6c, 0x9c, 0x7e, 0x67, 0x74, 0x96, 0x82, 0x64, 0x85, 0x6c, 0x86, 0x5b,
  0x7c, 0x7d, 0x6b, 0x69, 0x98, 0x5c, 0x8a, 0x39, 0x87, 0x5e, 0x51, 0x6c,
  0x5d, 0x92, 0x7e, 0x5a, 0x8d, 0x2f, 0x62, 0x63, 0x9f, 0x83, 0x83, 0x8e,
  0x55, 0x5d, 0x67, 0x4d, 0x6d, 0x6a, 0x64, 0x47, 0x7b, 0x33, 0x7e, 0x8f,
  0x4f, 0x67, 0x70, 0x60, 0x64, 0x30, 0x6c, 0x6d, 0x71, 0x81, 0x7d, 0x63,
  0x7f, 0x87, 0x4f, 0x83, 0x7d, 0x69, 0x5b, 0x83, 0x5d, 0x42, 0x81, 0x4b,
  0x9a, 0x4a, 0x99, 0x91, 0x9e, 0x3b, 0x60, 0x76, 0x8e, 0x6a, 0x61, 0x3f,
  0x56, 0x39, 0x57, 0x6b, 0x8f, 0x65, 0x7f, 0x78, 0x9e, 0x8a, 0x6f, 0x70,
  0x58, 0x66, 0x7d, 0x63, 0xa3, 0x38, 0x8c, 0x6d, 0x85, 0x5e, 0x94, 0x64,
  0x4d, 0x8c, 0x81, 0x80, 0x7e, 0x88, 0x7b, 0x4c, 0x8c, 0x49, 0x94, 0x70,
  0x84, 0x64, 0x84, 0x25, 0x76, 0x93, 0x97, 0x84, 0x8f, 0x89, 0x47, 0x60,
  0x8e, 0x46, 0x60, 0x66, 0x4c, 0x8f, 0x7a, 0x60, 0x7c, 0x7b, 0x70, 0x61,
  0x87, 0x86, 0x58, 0x66, 0x88, 0x42, 0x81, 0x4b, 0x48, 0x55, 0x80, 0x45,
  0x5a, 0x7a, 0xa6, 0x87, 0x7b, 0x5a, 0x7f, 0x5a, 0x7e, 0x4f, 0x75, 0x7c,
  0x7d, 0x5b, 0x7d, 0x88, 0x5c, 0xa6, 0x6a, 0x8f, 0x6c, 0x60, 0x8f, 0x80,
  0x63, 0xcd, 0x5a, 0x8c, 0x7d, 0x73, 0x7a, 0x76, 0x53, 0x51, 0x8a, 0x74,
  0x6a, 0x2e, 0x68, 0x55, 0x9a, 0x75, 0x76, 0x61, 0x76, 0x91, 0x8b, 0xa1,
  0x57, 0x5d, 0x4a, 0x58, 0x8d, 0x73, 0x5c, 0x3d, 0x5a, 0x5b, 0x3b, 0x6c,
  0x69, 0x76, 0x63, 0x74, 0x60, 0x74, 0x6b, 0x75, 0x52, 0x7e, 0x40, 0x6f,
  0x47, 0x8b, 0x64, 0x73, 0x3e, 0x7b, 0x5a, 0x2e, 0x83, 0x5a, 0x80, 0x50,
  0x89, 0x72, 0x82, 0x6c, 0x64, 0x87, 0x6e, 0x46, 0x6a, 0x6c, 0x5a, 0x42,
  0x5f, 0x87, 0x91, 0x69, 0x74, 0x87, 0x90, 0xa9, 0x70, 0x9f, 0x5a, 0xa0,
  0x96, 0x82, 0x76, 0x65, 0x5d, 0x53, 0x7d, 0x79, 0xa4, 0xa2, 0x74, 0x55,
  0x7a, 0x97, 0x58, 0x59, 0x7c, 0x6e, 0x5a, 0x83, 0x58, 0x8c, 0x9b, 0x5a,
  0x6e, 0x8e, 0x82, 0x76, 0x77, 0x85, 0x6c, 0x65, 0x56, 0x4a, 0x7e, 0xa1,
  0x74, 0x78, 0x78, 0x7b, 0x83, 0x6d, 0x52, 0xa9, 0x8a, 0x8b, 0x7f, 0x72,
  0x63, 0x74, 0x6d, 0x67, 0x4e, 0x87, 0x92, 0x7c, 0x67, 0xa8, 0x9d, 0x37,
  0x91, 0x3f, 0x6d, 0x50, 0x64, 0x9c, 0x8e, 0x63, 0x4d, 0xaa, 0x4c, 0x77,
  0x6c, 0x6c, 0x9f, 0x5c, 0x75, 0x70, 0x60, 0x5a, 0x71, 0x7d, 0x7f, 0xb8,
  0xa4, 0x55, 0x72, 0x78, 0x9e, 0xa3, 0x72, 0x94, 0x5e, 0x97, 0x94, 0x75,
  0x60, 0x88, 0x7d, 0x95, 0x82, 0x54, 0x6a, 0x70, 0x64, 0xa8, 0x72, 0xcc,
  0x78, 0x37, 0x64, 0x60, 0x86, 0x7c, 0x75, 0x69, 0x9c, 0x91, 0x71, 0x7a,
  0x6a, 0x82, 0x91, 0x94, 0x74, 0x4f, 0x6a, 0x84, 0x86, 0x6c, 0x62, 0x46,
  0x93, 0x6b, 0x74, 0x7a, 0x85, 0x7c, 0x5e, 0x49, 0x4f, 0x6a, 0x6d, 0x6f,
  0x62, 0x6b, 0xa4, 0x45, 0x83, 0x85, 0x7a, 0x78, 0x68, 0xfa, 0x96, 0x54,
  0x74, 0x25, 0x8c, 0xad, 0x8d, 0xab, 0x7a, 0x74, 0x84, 0x75, 0x88, 0x5e,
  0x7f, 0x58, 0x54, 0x40, 0x66, 0x6c, 0x5f, 0x57, 0x72, 0x57, 0x31, 0x4c,
  0xbe, 0xe4, 0xff, 0xff, 0x00, 0x00, 0x00, 0x02, 0x10, 0x00, 0x00, 0x00,
  0x2c, 0x00, 0x00, 0x00, 0x14, 0x00, 0x00, 0x00, 0x34, 0x00, 0x00, 0x00,
  0x02, 0x00, 0x00, 0x00, 0x01, 0x00, 0x00, 0x00, 0x04, 0x00, 0x00, 0x00,
  0x1e, 0x00, 0x00, 0x00, 0x63, 0x6f, 0x6e, 0x76, 0x31, 0x64, 0x2f, 0x63,
  0x6f, 0x6e, 0x76, 0x31, 0x64, 0x2f, 0x45, 0x78, 0x70, 0x61, 0x6e, 0x64,
  0x44, 0x69, 0x6d, 0x73, 0x2f, 0x64, 0x69, 0x6d, 0x5f, 0x30, 0x00, 0x00,
  0x0c, 0xe4, 0xff, 0xff, 0x10, 0x00, 0x00, 0x00, 0x01, 0x00, 0x00, 0x00,
  0x01, 0x00, 0x00, 0x00, 0x80, 0x00, 0x00, 0x00, 0x09, 0x00, 0x00, 0x00,
  0x1e, 0xe5, 0xff, 0xff, 0x00, 0x00, 0x00, 0x03, 0x10, 0x00, 0x00, 0x00,
  0x2b, 0x00, 0x00, 0x00, 0x1c, 0x00, 0x00, 0x00, 0x34, 0x00, 0x00, 0x00,
  0x04, 0x00, 0x00, 0x00, 0x01, 0x00, 0x00, 0x00, 0x01, 0x00, 0x00, 0x00,
  0x40, 0x00, 0x00, 0x00, 0x08, 0x00, 0x00, 0x00, 0x17, 0x00, 0x00, 0x00,
  0x63, 0x6f, 0x6e, 0x76, 0x31, 0x64, 0x5f, 0x31, 0x2f, 0x63, 0x6f, 0x6e,
  0x76, 0x31, 0x64, 0x2f, 0x53, 0x71, 0x75, 0x65, 0x65, 0x7a, 0x65, 0x00,
  0x74, 0xea, 0xff, 0xff, 0x30, 0x00, 0x00, 0x00, 0x24, 0x00, 0x00, 0x00,
  0x18, 0x00, 0x00, 0x00, 0x04, 0x00, 0x00, 0x00, 0x01, 0x00, 0x00, 0x00,
  0x00, 0x00, 0x00, 0x00, 0x00, 0x00, 0x00, 0x00, 0x00, 0x00, 0x00, 0x00,
  0x01, 0x00, 0x00, 0x00, 0x00, 0x00, 0x80, 0x3f, 0x01, 0x00, 0x00, 0x00,
  0x00, 0x00, 0x7f, 0x43, 0x01, 0x00, 0x00, 0x00, 0x00, 0x00, 0x00, 0x00,
  0xa2, 0xe5, 0xff, 0xff, 0x00, 0x00, 0x00, 0x03, 0x10, 0x00, 0x00, 0x00,
  0x2a, 0x00, 0x00, 0x00, 0x1c, 0x00, 0x00, 0x00, 0x38, 0x00, 0x00, 0x00,
  0x04, 0x00, 0x00, 0x00, 0x01, 0x00, 0x00, 0x00, 0x80, 0x00, 0x00, 0x00,
  0x01, 0x00, 0x00, 0x00, 0x04, 0x00, 0x00, 0x00, 0x18, 0x00, 0x00, 0x00,
  0x6d, 0x61, 0x78, 0x5f, 0x70, 0x6f, 0x6f, 0x6c, 0x69, 0x6e, 0x67, 0x31,
  0x64, 0x2f, 0x45, 0x78, 0x70, 0x61, 0x6e, 0x64, 0x44, 0x69, 0x6d, 0x73,
  0x00, 0x00, 0x00, 0x00, 0xfc, 0xea, 0xff, 0xff, 0x2c, 0x00, 0x00, 0x00,
  0x20, 0x00, 0x00, 0x00, 0x14, 0x00, 0x00, 0x00, 0x04, 0x00, 0x00, 0x00,
  0x01, 0x00, 0x00, 0x00, 0x00, 0x00, 0x00, 0x00, 0x00, 0x00, 0x00, 0x00,
  0x01, 0x00, 0x00, 0x00, 0x00, 0x00, 0x80, 0x3f, 0x01, 0x00, 0x00, 0x00,
  0x00, 0x00, 0x7f, 0x43, 0x01, 0x00, 0x00, 0x00, 0x00, 0x00, 0x00, 0x00,
  0x26, 0xe6, 0xff, 0xff, 0x00, 0x00, 0x00, 0x03, 0x10, 0x00, 0x00, 0x00,
  0x29, 0x00, 0x00, 0x00, 0x1c, 0x00, 0x00, 0x00, 0x34, 0x00, 0x00, 0x00,
  0x04, 0x00, 0x00, 0x00, 0x01, 0x00, 0x00, 0x00, 0x01, 0x00, 0x00, 0x00,
  0x20, 0x00, 0x00, 0x00, 0x10, 0x00, 0x00, 0x00, 0x17, 0x00, 0x00, 0x00,
  0x63, 0x6f, 0x6e, 0x76, 0x31, 0x64, 0x5f, 0x32, 0x2f, 0x63, 0x6f, 0x6e,
  0x76, 0x31, 0x64, 0x2f, 0x53, 0x71, 0x75, 0x65, 0x65, 0x7a, 0x65, 0x00,
  0x7c, 0xeb, 0xff, 0xff, 0x2c, 0x00, 0x00, 0x00, 0x20, 0x00, 0x00, 0x00,
  0x14, 0x00, 0x00, 0x00, 0x04, 0x00, 0x00, 0x00, 0x01, 0x00, 0x00, 0x00,
  0x00, 0x00, 0x00, 0x00, 0x00, 0x00, 0x00, 0x00, 0x01, 0x00, 0x00, 0x00,
  0x00, 0x00, 0x80, 0x3f, 0x01, 0x00, 0x00, 0x00, 0x00, 0x00, 0x7f, 0x43,
  0x01, 0x00, 0x00, 0x00, 0x00, 0x00, 0x00, 0x00, 0xa6, 0xe6, 0xff, 0xff,
  0x00, 0x00, 0x00, 0x03, 0x10, 0x00, 0x00, 0x00, 0x28, 0x00, 0x00, 0x00,
  0x1c, 0x00, 0x00, 0x00, 0x34, 0x00, 0x00, 0x00, 0x04, 0x00, 0x00, 0x00,
  0x01, 0x00, 0x00, 0x00, 0x10, 0x00, 0x00, 0x00, 0x01, 0x00, 0x00, 0x00,
  0x10, 0x00, 0x00, 0x00, 0x17, 0x00, 0x00, 0x00, 0x6d, 0x61, 0x78, 0x5f,
  0x70, 0x6f, 0x6f, 0x6c, 0x69, 0x6e, 0x67, 0x31, 0x64, 0x5f, 0x32, 0x2f,
  0x4d, 0x61, 0x78, 0x50, 0x6f, 0x6f, 0x6c, 0x00, 0xfc, 0xeb, 0xff, 0xff,
  0x2c, 0x00, 0x00, 0x00, 0x20, 0x00, 0x00, 0x00, 0x14, 0x00, 0x00, 0x00,
  0x04, 0x00, 0x00, 0x00, 0x01, 0x00, 0x00, 0x00, 0x00, 0x00, 0x00, 0x00,
  0x00, 0x00, 0x00, 0x00, 0x01, 0x00, 0x00, 0x00, 0x00, 0x00, 0x80, 0x3f,
  0x01, 0x00, 0x00, 0x00, 0x00, 0x00, 0x7f, 0x43, 0x01, 0x00, 0x00, 0x00,
  0x00, 0x00, 0x00, 0x00, 0x26, 0xe7, 0xff, 0xff, 0x00, 0x00, 0x00, 0x03,
  0x10, 0x00, 0x00, 0x00, 0x27, 0x00, 0x00, 0x00, 0x1c, 0x00, 0x00, 0x00,
  0x3c, 0x00, 0x00, 0x00, 0x04, 0x00, 0x00, 0x00, 0x08, 0x00, 0x00, 0x00,
  0x01, 0x00, 0x00, 0x00, 0x03, 0x00, 0x00, 0x00, 0x04, 0x00, 0x00, 0x00,
  0x1c, 0x00, 0x00, 0x00, 0x63, 0x6f, 0x6e, 0x76, 0x31, 0x64, 0x5f, 0x31,
  0x2f, 0x63, 0x6f, 0x6e, 0x76, 0x31, 0x64, 0x2f, 0x45, 0x78, 0x70, 0x61,
  0x6e, 0x64, 0x44, 0x69, 0x6d, 0x73, 0x5f, 0x31, 0x00, 0x00, 0x00, 0x00,
  0x84, 0xec, 0xff, 0xff, 0x2c, 0x00, 0x00, 0x00, 0x20, 0x00, 0x00, 0x00,
  0x14, 0x00, 0x00, 0x00, 0x04, 0x00, 0x00, 0x00, 0x01, 0x00, 0x00, 0x00,
  0x99, 0x00, 0x00, 0x00, 0x00, 0x00, 0x00, 0x00, 0x01, 0x00, 0x00, 0x00,
  0xcd, 0x5f, 0xa4, 0x3b, 0x01, 0x00, 0x00, 0x00, 0xed, 0x89, 0x02, 0x3f,
  0x01, 0x00, 0x00, 0x00, 0xed, 0xec, 0x44, 0xbf, 0x60, 0x00, 0x00, 0x00,
  0xe6, 0xad, 0x96, 0x4c, 0x9c, 0xc4, 0x00, 0x19, 0xca, 0xa5, 0x4a, 0xb1,
  0x42, 0x7b, 0x8a, 0x86, 0xc0, 0xde, 0xaa, 0x65, 0x79, 0x93, 0xc8, 0x14,
  0x4b, 0x1f, 0xb7, 0xaa, 0x77, 0x2b, 0x95, 0x78, 0xbc, 0x46, 0xc5, 0xd4,
  0xa2, 0x8c, 0xb9, 0x69, 0x62, 0xd6, 0xa4, 0xac, 0x94, 0xc1, 0x8b, 0xd1,
  0x5a, 0x74, 0x1d, 0x43, 0x51, 0x75, 0x77, 0xd3, 0x99, 0x94, 0x98, 0xbc,
  0xde, 0xc9, 0x22, 0x79, 0x8a, 0x7a, 0xca, 0xe7, 0x36, 0x6b, 0xc6, 0x5a,
  0x8c, 0x63, 0x1e, 0x18, 0x95, 0xd1, 0x99, 0x97, 0x75, 0x7f, 0xb2, 0xdc,
  0x99, 0x1e, 0x9c, 0x53, 0xd6, 0x32, 0x73, 0x9b, 0xff, 0x43, 0xc0, 0x95,
  0x12, 0xe8, 0xff, 0xff, 0x00, 0x00, 0x00, 0x03, 0x10, 0x00, 0x00, 0x00,
  0x26, 0x00, 0x00, 0x00, 0x1c, 0x00, 0x00, 0x00, 0x38, 0x00, 0x00, 0x00,
  0x04, 0x00, 0x00, 0x00, 0x01, 0x00, 0x00, 0x00, 0x20, 0x00, 0x00, 0x00,
  0x01, 0x00, 0x00, 0x00, 0x10, 0x00, 0x00, 0x00, 0x1a, 0x00, 0x00, 0x00,
  0x6d, 0x61, 0x78, 0x5f, 0x70, 0x6f, 0x6f, 0x6c, 0x69, 0x6e, 0x67, 0x31,
  0x64, 0x5f, 0x32, 0x2f, 0x45, 0x78, 0x70, 0x61, 0x6e, 0x64, 0x44, 0x69,
  0x6d, 0x73, 0x00, 0x00, 0x6c, 0xed, 0xff, 0xff, 0x30, 0x00, 0x00, 0x00,
  0x24, 0x00, 0x00, 0x00, 0x18, 0x00, 0x00, 0x00, 0x04, 0x00, 0x00, 0x00,
  0x01, 0x00, 0x00, 0x00, 0x00, 0x00, 0x00, 0x00, 0x00, 0x00, 0x00, 0x00,
  0x00, 0x00, 0x00, 0x00, 0x01, 0x00, 0x00, 0x00, 0x00, 0x00, 0x80, 0x3f,
  0x01, 0x00, 0x00, 0x00, 0x00, 0x00, 0x7f, 0x43, 0x01, 0x00, 0x00, 0x00,
  0x00, 0x00, 0x00, 0x00, 0x9a, 0xe8, 0xff, 0xff, 0x00, 0x00, 0x00, 0x03,
  0x10, 0x00, 0x00, 0x00, 0x25, 0x00, 0x00, 0x00, 0x1c, 0x00, 0x00, 0x00,
  0x38, 0x00, 0x00, 0x00, 0x04, 0x00, 0x00, 0x00, 0x01, 0x00, 0x00, 0x00,
  0x01, 0x00, 0x00, 0x00, 0x40, 0x00, 0x00, 0x00, 0x04, 0x00, 0x00, 0x00,
  0x1a, 0x00, 0x00, 0x00, 0x63, 0x6f, 0x6e, 0x76, 0x31, 0x64, 0x5f, 0x31,
  0x2f, 0x63, 0x6f, 0x6e, 0x76, 0x31, 0x64, 0x2f, 0x45, 0x78, 0x70, 0x61,
  0x6e, 0x64, 0x44, 0x69, 0x6d, 0x73, 0x00, 0x00, 0xf4, 0xed, 0xff, 0xff,
  0x30, 0x00, 0x00, 0x00, 0x24, 0x00, 0x00, 0x00, 0x18, 0x00, 0x00, 0x00,
  0x04, 0x00, 0x00, 0x00, 0x01, 0x00, 0x00, 0x00, 0x00, 0x00, 0x00, 0x00,
  0x00, 0x00, 0x00, 0x00, 0x00, 0x00, 0x00, 0x00, 0x01, 0x00, 0x00, 0x00,
  0x00, 0x00, 0x80, 0x3f, 0x01, 0x00, 0x00, 0x00, 0x00, 0x00, 0x7f, 0x43,
  0x01, 0x00, 0x00, 0x00, 0x00, 0x00, 0x00, 0x00, 0x22, 0xe9, 0xff, 0xff,
  0x00, 0x00, 0x00, 0x03, 0x10, 0x00, 0x00, 0x00, 0x24, 0x00, 0x00, 0x00,
  0x1c, 0x00, 0x00, 0x00, 0x38, 0x00, 0x00, 0x00, 0x04, 0x00, 0x00, 0x00,
  0x01, 0x00, 0x00, 0x00, 0x08, 0x00, 0x00, 0x00, 0x01, 0x00, 0x00, 0x00,
  0x08, 0x00, 0x00, 0x00, 0x1a, 0x00, 0x00, 0x00, 0x6d, 0x61, 0x78, 0x5f,
  0x70, 0x6f, 0x6f, 0x6c, 0x69, 0x6e, 0x67, 0x31, 0x64, 0x5f, 0x34, 0x2f,
  0x45, 0x78, 0x70, 0x61, 0x6e, 0x64, 0x44, 0x69, 0x6d, 0x73, 0x00, 0x00,
  0x7c, 0xee, 0xff, 0xff, 0x30, 0x00, 0x00, 0x00, 0x24, 0x00, 0x00, 0x00,
  0x18, 0x00, 0x00, 0x00, 0x04, 0x00, 0x00, 0x00, 0x01, 0x00, 0x00, 0x00,
  0x00, 0x00, 0x00, 0x00, 0x00, 0x00, 0x00, 0x00, 0x00, 0x00, 0x00, 0x00,
  0x01, 0x00, 0x00, 0x00, 0x00, 0x00, 0x80, 0x3f, 0x01, 0x00, 0x00, 0x00,
  0x00, 0x00, 0x7f, 0x43, 0x01, 0x00, 0x00, 0x00, 0x00, 0x00, 0x00, 0x00,
  0xaa, 0xe9, 0xff, 0xff, 0x00, 0x00, 0x00, 0x03, 0x10, 0x00, 0x00, 0x00,
  0x23, 0x00, 0x00, 0x00, 0x1c, 0x00, 0x00, 0x00, 0x38, 0x00, 0x00, 0x00,
  0x04, 0x00, 0x00, 0x00, 0x01, 0x00, 0x00, 0x00, 0x01, 0x00, 0x00, 0x00,
  0x10, 0x00, 0x00, 0x00, 0x10, 0x00, 0x00, 0x00, 0x1a, 0x00, 0x00, 0x00,
  0x63, 0x6f, 0x6e, 0x76, 0x31, 0x64, 0x5f, 0x33, 0x2f, 0x63, 0x6f, 0x6e,
  0x76, 0x31, 0x64, 0x2f, 0x45, 0x78, 0x70, 0x61, 0x6e, 0x64, 0x44, 0x69,
  0x6d, 0x73, 0x00, 0x00, 0x04, 0xef, 0xff, 0xff, 0x30, 0x00, 0x00, 0x00,
  0x24, 0x00, 0x00, 0x00, 0x18, 0x00, 0x00, 0x00, 0x04, 0x00, 0x00, 0x00,
  0x01, 0x00, 0x00, 0x00, 0x00, 0x00, 0x00, 0x00, 0x00, 0x00, 0x00, 0x00,
  0x00, 0x00, 0x00, 0x00, 0x01, 0x00, 0x00, 0x00, 0x00, 0x00, 0x80, 0x3f,
  0x01, 0x00, 0x00, 0x00, 0x00, 0x00, 0x7f, 0x43, 0x01, 0x00, 0x00, 0x00,
  0x00, 0x00, 0x00, 0x00, 0x32, 0xea, 0xff, 0xff, 0x00, 0x00, 0x00, 0x03,
  0x10, 0x00, 0x00, 0x00, 0x22, 0x00, 0x00, 0x00, 0x1c, 0x00, 0x00, 0x00,
  0x38, 0x00, 0x00, 0x00, 0x04, 0x00, 0x00, 0x00, 0x01, 0x00, 0x00, 0x00,
  0x40, 0x00, 0x00, 0x00, 0x01, 0x00, 0x00, 0x00, 0x08, 0x00, 0x00, 0x00,
  0x1a, 0x00, 0x00, 0x00, 0x6d, 0x61, 0x78, 0x5f, 0x70, 0x6f, 0x6f, 0x6c,
  0x69, 0x6e, 0x67, 0x31, 0x64, 0x5f, 0x31, 0x2f, 0x45, 0x78, 0x70, 0x61,
  0x6e, 0x64, 0x44, 0x69, 0x6d, 0x73, 0x00, 0x00, 0x8c, 0xef, 0xff, 0xff,
  0x30, 0x00, 0x00, 0x00, 0x24, 0x00, 0x00, 0x00, 0x18, 0x00, 0x00, 0x00,
  0x04, 0x00, 0x00, 0x00, 0x01, 0x00, 0x00, 0x00, 0x00, 0x00, 0x00, 0x00,
  0x00, 0x00, 0x00, 0x00, 0x00, 0x00, 0x00, 0x00, 0x01, 0x00, 0x00, 0x00,
  0x00, 0x00, 0x80, 0x3f, 0x01, 0x00, 0x00, 0x00, 0x00, 0x00, 0x7f, 0x43,
  0x01, 0x00, 0x00, 0x00, 0x00, 0x00, 0x00, 0x00, 0xba, 0xea, 0xff, 0xff,
  0x00, 0x00, 0x00, 0x03, 0x10, 0x00, 0x00, 0x00, 0x21, 0x00, 0x00, 0x00,
  0x18, 0x00, 0x00, 0x00, 0x20, 0x00, 0x00, 0x00, 0x03, 0x00, 0x00, 0x00,
  0x01, 0x00, 0x00, 0x00, 0x80, 0x00, 0x00, 0x00, 0x09, 0x00, 0x00, 0x00,
  0x07, 0x00, 0x00, 0x00, 0x69, 0x6e, 0x70, 0x75, 0x74, 0x5f, 0x31, 0x00,
  0xfc, 0xef, 0xff, 0xff, 0x30, 0x00, 0x00, 0x00, 0x24, 0x00, 0x00, 0x00,
  0x18, 0x00, 0x00, 0x00, 0x04, 0x00, 0x00, 0x00, 0x01, 0x00, 0x00, 0x00,
  0x80, 0x00, 0x00, 0x00, 0x00, 0x00, 0x00, 0x00, 0x00, 0x00, 0x00, 0x00,
  0x01, 0x00, 0x00, 0x00, 0x00, 0x00, 0x80, 0x3f, 0x01, 0x00, 0x00, 0x00,
  0x00, 0x00, 0xfe, 0x42, 0x01, 0x00, 0x00, 0x00, 0x00, 0x00, 0x00, 0xc3,
  0x2a, 0xeb, 0xff, 0xff, 0x00, 0x00, 0x00, 0x03, 0x10, 0x00, 0x00, 0x00,
  0x20, 0x00, 0x00, 0x00, 0x1c, 0x00, 0x00, 0x00, 0x38, 0x00, 0x00, 0x00,
  0x04, 0x00, 0x00, 0x00, 0x01, 0x00, 0x00, 0x00, 0x01, 0x00, 0x00, 0x00,
  0x80, 0x00, 0x00, 0x00, 0x09, 0x00, 0x00, 0x00, 0x18, 0x00, 0x00, 0x00,
  0x63, 0x6f, 0x6e, 0x76, 0x31, 0x64, 0x2f, 0x63, 0x6f, 0x6e, 0x76, 0x31,
  0x64, 0x2f, 0x45, 0x78, 0x70, 0x61, 0x6e, 0x64, 0x44, 0x69, 0x6d, 0x73,
  0x00, 0x00, 0x00, 0x00, 0x84, 0xf0, 0xff, 0xff, 0x2c, 0x00, 0x00, 0x00,
  0x20, 0x00, 0x00, 0x00, 0x14, 0x00, 0x00, 0x00, 0x04, 0x00, 0x00, 0x00,
  0x01, 0x00, 0x00, 0x00, 0x80, 0x00, 0x00, 0x00, 0x00, 0x00, 0x00, 0x00,
  0x01, 0x00, 0x00, 0x00, 0x00, 0x00, 0x80, 0x3f, 0x01, 0x00, 0x00, 0x00,
  0x00, 0x00, 0xfe, 0x42, 0x01, 0x00, 0x00, 0x00, 0x00, 0x00, 0x00, 0xc3,
  0xae, 0xeb, 0xff, 0xff, 0x00, 0x00, 0x00, 0x03, 0x10, 0x00, 0x00, 0x00,
  0x1f, 0x00, 0x00, 0x00, 0x1c, 0x00, 0x00, 0x00, 0x34, 0x00, 0x00, 0x00,
  0x04, 0x00, 0x00, 0x00, 0x01, 0x00, 0x00, 0x00, 0x40, 0x00, 0x00, 0x00,
  0x01, 0x00, 0x00, 0x00, 0x04, 0x00, 0x00, 0x00, 0x15, 0x00, 0x00, 0x00,
  0x6d, 0x61, 0x78, 0x5f, 0x70, 0x6f, 0x6f, 0x6c, 0x69, 0x6e, 0x67, 0x31,
  0x64, 0x2f, 0x4d, 0x61, 0x78, 0x50, 0x6f, 0x6f, 0x6c, 0x00, 0x00, 0x00,
  0x04, 0xf1, 0xff, 0xff, 0x30, 0x00, 0x00, 0x00, 0x24, 0x00, 0x00, 0x00,
  0x18, 0x00, 0x00, 0x00, 0x04, 0x00, 0x00, 0x00, 0x01, 0x00, 0x00, 0x00,
  0x00, 0x00, 0x00, 0x00, 0x00, 0x00, 0x00, 0x00, 0x00, 0x00, 0x00, 0x00,
  0x01, 0x00, 0x00, 0x00, 0x00, 0x00, 0x80, 0x3f, 0x01, 0x00, 0x00, 0x00,
  0x00, 0x00, 0x7f, 0x43, 0x01, 0x00, 0x00, 0x00, 0x00, 0x00, 0x00, 0x00,
  0x32, 0xec, 0xff, 0xff, 0x00, 0x00, 0x00, 0x03, 0x10, 0x00, 0x00, 0x00,
  0x1e, 0x00, 0x00, 0x00, 0x1c, 0x00, 0x00, 0x00, 0x38, 0x00, 0x00, 0x00,
  0x04, 0x00, 0x00, 0x00, 0x01, 0x00, 0x00, 0x00, 0x01, 0x00, 0x00, 0x00,
  0x20, 0x00, 0x00, 0x00, 0x08, 0x00, 0x00, 0x00, 0x1a, 0x00, 0x00, 0x00,
  0x63, 0x6f, 0x6e, 0x76, 0x31, 0x64, 0x5f, 0x32, 0x2f, 0x63, 0x6f, 0x6e,
  0x76, 0x31, 0x64, 0x2f, 0x45, 0x78, 0x70, 0x61, 0x6e, 0x64, 0x44, 0x69,
  0x6d, 0x73, 0x00, 0x00, 0x8c, 0xf1, 0xff, 0xff, 0x2c, 0x00, 0x00, 0x00,
  0x20, 0x00, 0x00, 0x00, 0x14, 0x00, 0x00, 0x00, 0x04, 0x00, 0x00, 0x00,
  0x01, 0x00, 0x00, 0x00, 0x00, 0x00, 0x00, 0x00, 0x00, 0x00, 0x00, 0x00,
  0x01, 0x00, 0x00, 0x00, 0x00, 0x00, 0x80, 0x3f, 0x01, 0x00, 0x00, 0x00,
  0x00, 0x00, 0x7f, 0x43, 0x01, 0x00, 0x00, 0x00, 0x00, 0x00, 0x00, 0x00,
  0xb6, 0xec, 0xff, 0xff, 0x00, 0x00, 0x00, 0x03, 0x10, 0x00, 0x00, 0x00,
  0x1d, 0x00, 0x00, 0x00, 0x1c, 0x00, 0x00, 0x00, 0x34, 0x00, 0x00, 0x00,
  0x04, 0x00, 0x00, 0x00, 0x01, 0x00, 0x00, 0x00, 0x08, 0x00, 0x00, 0x00,
  0x01, 0x00, 0x00, 0x00, 0x20, 0x00, 0x00, 0x00, 0x17, 0x00, 0x00, 0x00,
  0x6d, 0x61, 0x78, 0x5f, 0x70, 0x6f, 0x6f, 0x6c, 0x69, 0x6e, 0x67, 0x31,
  0x64, 0x5f, 0x33, 0x2f, 0x4d, 0x61, 0x78, 0x50, 0x6f, 0x6f, 0x6c, 0x00,
  0x0c, 0xf2, 0xff, 0xff, 0x2c, 0x00, 0x00, 0x00, 0x20, 0x00, 0x00, 0x00,
  0x14, 0x00, 0x00, 0x00, 0x04, 0x00, 0x00, 0x00, 0x01, 0x00, 0x00, 0x00,
  0x00, 0x00, 0x00, 0x00, 0x00, 0x00, 0x00, 0x00, 0x01, 0x00, 0x00, 0x00,
  0x00, 0x00, 0x80, 0x3f, 0x01, 0x00, 0x00, 0x00, 0x00, 0x00, 0x7f, 0x43,
  0x01, 0x00, 0x00, 0x00, 0x00, 0x00, 0x00, 0x00, 0x36, 0xed, 0xff, 0xff,
  0x00, 0x00, 0x00, 0x03, 0x10, 0x00, 0x00, 0x00, 0x1c, 0x00, 0x00, 0x00,
  0x1c, 0x00, 0x00, 0x00, 0x34, 0x00, 0x00, 0x00, 0x04, 0x00, 0x00, 0x00,
  0x01, 0x00, 0x00, 0x00, 0x01, 0x00, 0x00, 0x00, 0x10, 0x00, 0x00, 0x00,
  0x20, 0x00, 0x00, 0x00, 0x17, 0x00, 0x00, 0x00, 0x63, 0x6f, 0x6e, 0x76,
  0x31, 0x64, 0x5f, 0x33, 0x2f, 0x63, 0x6f, 0x6e, 0x76, 0x31, 0x64, 0x2f,
  0x53, 0x71, 0x75, 0x65, 0x65, 0x7a, 0x65, 0x00, 0x8c, 0xf2, 0xff, 0xff,
  0x30, 0x00, 0x00, 0x00, 0x24, 0x00, 0x00, 0x00, 0x18, 0x00, 0x00, 0x00,
  0x04, 0x00, 0x00, 0x00, 0x01, 0x00, 0x00, 0x00, 0x00, 0x00, 0x00, 0x00,
  0x00, 0x00, 0x00, 0x00, 0x00, 0x00, 0x00, 0x00, 0x01, 0x00, 0x00, 0x00,
  0x00, 0x00, 0x80, 0x3f, 0x01, 0x00, 0x00, 0x00, 0x00, 0x00, 0x7f, 0x43,
  0x01, 0x00, 0x00, 0x00, 0x00, 0x00, 0x00, 0x00, 0xba, 0xed, 0xff, 0xff,
  0x00, 0x00, 0x00, 0x03, 0x10, 0x00, 0x00, 0x00, 0x1b, 0x00, 0x00, 0x00,
  0x1c, 0x00, 0x00, 0x00, 0x38, 0x00, 0x00, 0x00, 0x04, 0x00, 0x00, 0x00,
  0x01, 0x00, 0x00, 0x00, 0x10, 0x00, 0x00, 0x00, 0x01, 0x00, 0x00, 0x00,
  0x20, 0x00, 0x00, 0x00, 0x1a, 0x00, 0x00, 0x00, 0x6d, 0x61, 0x78, 0x5f,
  0x70, 0x6f, 0x6f, 0x6c, 0x69, 0x6e, 0x67, 0x31, 0x64, 0x5f, 0x33, 0x2f,
  0x45, 0x78, 0x70, 0x61, 0x6e, 0x64, 0x44, 0x69, 0x6d, 0x73, 0x00, 0x00,
  0x14, 0xf3, 0xff, 0xff, 0x30, 0x00, 0x00, 0x00, 0x24, 0x00, 0x00, 0x00,
  0x18, 0x00, 0x00, 0x00, 0x04, 0x00, 0x00, 0x00, 0x01, 0x00, 0x00, 0x00,
  0x00, 0x00, 0x00, 0x00, 0x00, 0x00, 0x00, 0x00, 0x00, 0x00, 0x00, 0x00,
  0x01, 0x00, 0x00, 0x00, 0x00, 0x00, 0x80, 0x3f, 0x01, 0x00, 0x00, 0x00,
  0x00, 0x00, 0x7f, 0x43, 0x01, 0x00, 0x00, 0x00, 0x00, 0x00, 0x00, 0x00,
  0x42, 0xee, 0xff, 0xff, 0x00, 0x00, 0x00, 0x03, 0x10, 0x00, 0x00, 0x00,
  0x1a, 0x00, 0x00, 0x00, 0x1c, 0x00, 0x00, 0x00, 0x38, 0x00, 0x00, 0x00,
  0x04, 0x00, 0x00, 0x00, 0x01, 0x00, 0x00, 0x00, 0x01, 0x00, 0x00, 0x00,
  0x08, 0x00, 0x00, 0x00, 0x20, 0x00, 0x00, 0x00, 0x1a, 0x00, 0x00, 0x00,
  0x63, 0x6f, 0x6e, 0x76, 0x31, 0x64, 0x5f, 0x34, 0x2f, 0x63, 0x6f, 0x6e,
  0x76, 0x31, 0x64, 0x2f, 0x45, 0x78, 0x70, 0x61, 0x6e, 0x64, 0x44, 0x69,
  0x6d, 0x73, 0x00, 0x00, 0x9c, 0xf3, 0xff, 0xff, 0x2c, 0x00, 0x00, 0x00,
  0x20, 0x00, 0x00, 0x00, 0x14, 0x00, 0x00, 0x00, 0x04, 0x00, 0x00, 0x00,
  0x01, 0x00, 0x00, 0x00, 0x00, 0x00, 0x00, 0x00, 0x00, 0x00, 0x00, 0x00,
  0x01, 0x00, 0x00, 0x00, 0x00, 0x00, 0x80, 0x3f, 0x01, 0x00, 0x00, 0x00,
  0x00, 0x00, 0x7f, 0x43, 0x01, 0x00, 0x00, 0x00, 0x00, 0x00, 0x00, 0x00,
  0xc6, 0xee, 0xff, 0xff, 0x00, 0x00, 0x00, 0x03, 0x10, 0x00, 0x00, 0x00,
  0x19, 0x00, 0x00, 0x00, 0x1c, 0x00, 0x00, 0x00, 0x34, 0x00, 0x00, 0x00,
  0x04, 0x00, 0x00, 0x00, 0x01, 0x00, 0x00, 0x00, 0x01, 0x00, 0x00, 0x00,
  0x08, 0x00, 0x00, 0x00, 0x08, 0x00, 0x00, 0x00, 0x17, 0x00, 0x00, 0x00,
  0x63, 0x6f, 0x6e, 0x76, 0x31, 0x64, 0x5f, 0x34, 0x2f, 0x63, 0x6f, 0x6e,
  0x76, 0x31, 0x64, 0x2f, 0x53, 0x71, 0x75, 0x65, 0x65, 0x7a, 0x65, 0x00,
  0x1c, 0xf4, 0xff, 0xff, 0x2c, 0x00, 0x00, 0x00, 0x20, 0x00, 0x00, 0x00,
  0x14, 0x00, 0x00, 0x00, 0x04, 0x00, 0x00, 0x00, 0x01, 0x00, 0x00, 0x00,
  0x00, 0x00, 0x00, 0x00, 0x00, 0x00, 0x00, 0x00, 0x01, 0x00, 0x00, 0x00,
  0x00, 0x00, 0x80, 0x3f, 0x01, 0x00, 0x00, 0x00, 0x00, 0x00, 0x7f, 0x43,
  0x01, 0x00, 0x00, 0x00, 0x00, 0x00, 0x00, 0x00, 0x46, 0xef, 0xff, 0xff,
  0x00, 0x00, 0x00, 0x03, 0x10, 0x00, 0x00, 0x00, 0x18, 0x00, 0x00, 0x00,
  0x1c, 0x00, 0x00, 0x00, 0x34, 0x00, 0x00, 0x00, 0x04, 0x00, 0x00, 0x00,
  0x01, 0x00, 0x00, 0x00, 0x04, 0x00, 0x00, 0x00, 0x01, 0x00, 0x00, 0x00,
  0x08, 0x00, 0x00, 0x00, 0x17, 0x00, 0x00, 0x00, 0x6d, 0x61, 0x78, 0x5f,
  0x70, 0x6f, 0x6f, 0x6c, 0x69, 0x6e, 0x67, 0x31, 0x64, 0x5f, 0x34, 0x2f,
  0x4d, 0x61, 0x78, 0x50, 0x6f, 0x6f, 0x6c, 0x00, 0x9c, 0xf4, 0xff, 0xff,
  0x30, 0x00, 0x00, 0x00, 0x24, 0x00, 0x00, 0x00, 0x18, 0x00, 0x00, 0x00,
  0x04, 0x00, 0x00, 0x00, 0x01, 0x00, 0x00, 0x00, 0x00, 0x00, 0x00, 0x00,
  0x00, 0x00, 0x00, 0x00, 0x00, 0x00, 0x00, 0x00, 0x01, 0x00, 0x00, 0x00,
  0x00, 0x00, 0x80, 0x3f, 0x01, 0x00, 0x00, 0x00, 0x00, 0x00, 0x7f, 0x43,
  0x01, 0x00, 0x00, 0x00, 0x00, 0x00, 0x00, 0x00, 0xca, 0xef, 0xff, 0xff,
  0x00, 0x00, 0x00, 0x03, 0x10, 0x00, 0x00, 0x00, 0x17, 0x00, 0x00, 0x00,
  0x18, 0x00, 0x00, 0x00, 0x30, 0x00, 0x00, 0x00, 0x03, 0x00, 0x00, 0x00,
  0x01, 0x00, 0x00, 0x00, 0x04, 0x00, 0x00, 0x00, 0x08, 0x00, 0x00, 0x00,
  0x17, 0x00, 0x00, 0x00, 0x6d, 0x61, 0x78, 0x5f, 0x70, 0x6f, 0x6f, 0x6c,
  0x69, 0x6e, 0x67, 0x31, 0x64, 0x5f, 0x34, 0x2f, 0x53, 0x71, 0x75, 0x65,
  0x65, 0x7a, 0x65, 0x00, 0x1c, 0xf5, 0xff, 0xff, 0x2c, 0x00, 0x00, 0x00,
  0x20, 0x00, 0x00, 0x00, 0x14, 0x00, 0x00, 0x00, 0x04, 0x00, 0x00, 0x00,
  0x01, 0x00, 0x00, 0x00, 0x00, 0x00, 0x00, 0x00, 0x00, 0x00, 0x00, 0x00,
  0x01, 0x00, 0x00, 0x00, 0x00, 0x00, 0x80, 0x3f, 0x01, 0x00, 0x00, 0x00,
  0x00, 0x00, 0x7f, 0x43, 0x01, 0x00, 0x00, 0x00, 0x00, 0x00, 0x00, 0x00,
  0x46, 0xf0, 0xff, 0xff, 0x00, 0x00, 0x00, 0x03, 0x10, 0x00, 0x00, 0x00,
  0x16, 0x00, 0x00, 0x00, 0x14, 0x00, 0x00, 0x00, 0x24, 0x00, 0x00, 0x00,
  0x02, 0x00, 0x00, 0x00, 0x01, 0x00, 0x00, 0x00, 0x06, 0x00, 0x00, 0x00,
  0x0d, 0x00, 0x00, 0x00, 0x64, 0x65, 0x6e, 0x73, 0x65, 0x2f, 0x42, 0x69,
  0x61, 0x73, 0x41, 0x64, 0x64, 0x00, 0x00, 0x00, 0x8c, 0xf5, 0xff, 0xff,
  0x30, 0x00, 0x00, 0x00, 0x24, 0x00, 0x00, 0x00, 0x18, 0x00, 0x00, 0x00,
  0x04, 0x00, 0x00, 0x00, 0x01, 0x00, 0x00, 0x00, 0x00, 0x00, 0x00, 0x00,
  0x00, 0x00, 0x00, 0x00, 0x00, 0x00, 0x00, 0x00, 0x01, 0x00, 0x00, 0x00,
  0x00, 0x00, 0x80, 0x3f, 0x01, 0x00, 0x00, 0x00, 0x00, 0x00, 0x7f, 0x43,
  0x01, 0x00, 0x00, 0x00, 0x00, 0x00, 0x00, 0x00, 0xba, 0xf0, 0xff, 0xff,
  0x00, 0x00, 0x00, 0x03, 0x10, 0x00, 0x00, 0x00, 0x15, 0x00, 0x00, 0x00,
  0x1c, 0x00, 0x00, 0x00, 0x38, 0x00, 0x00, 0x00, 0x04, 0x00, 0x00, 0x00,
  0x04, 0x00, 0x00, 0x00, 0x01, 0x00, 0x00, 0x00, 0x03, 0x00, 0x00, 0x00,
  0x09, 0x00, 0x00, 0x00, 0x1a, 0x00, 0x00, 0x00, 0x63, 0x6f, 0x6e, 0x76,
  0x31, 0x64, 0x2f, 0x63, 0x6f, 0x6e, 0x76, 0x31, 0x64, 0x2f, 0x45, 0x78,
  0x70, 0x61, 0x6e, 0x64, 0x44, 0x69, 0x6d, 0x73, 0x5f, 0x31, 0x00, 0x00,
  0x14, 0xf6, 0xff, 0xff, 0x2c, 0x00, 0x00, 0x00, 0x20, 0x00, 0x00, 0x00,
  0x14, 0x00, 0x00, 0x00, 0x04, 0x00, 0x00, 0x00, 0x01, 0x00, 0x00, 0x00,
  0x85, 0x00, 0x00, 0x00, 0x00, 0x00, 0x00, 0x00, 0x01, 0x00, 0x00, 0x00,
  0xef, 0xa3, 0x92, 0x3b, 0x01, 0x00, 0x00, 0x00, 0xc8, 0xa7, 0x0b, 0x3f,
  0x01, 0x00, 0x00, 0x00, 0xcf, 0x7a, 0x18, 0xbf, 0x6c, 0x00, 0x00, 0x00,
  0x76, 0x64, 0x83, 0x84, 0x31, 0x50, 0x1d, 0x8a, 0x85, 0x63, 0xc9, 0x31,
  0x93, 0x8a, 0x2f, 0x6f, 0xa8, 0x63, 0x55, 0x62, 0x2d, 0x12, 0x9d, 0x7f,
  0x00, 0x76, 0x8e, 0x7d, 0xa9, 0x3b, 0xb3, 0x83, 0x5c, 0xfd, 0x51, 0xbb,
  0x2b, 0x6e, 0x5f, 0x75, 0x8c, 0x44, 0x9a, 0x2b, 0xc1, 0x36, 0xa5, 0x70,
  0x8e, 0xaa, 0x06, 0xc8, 0x00, 0x24, 0xa7, 0x0c, 0x8f, 0xb2, 0xd0, 0xb4,
  0xb8, 0x82, 0xa7, 0x34, 0x71, 0x75, 0x77, 0x9c, 0xac, 0xcc, 0xf5, 0x71,
  0x3e, 0x69, 0x34, 0x4a, 0x57, 0x48, 0x83, 0xd0, 0xa2, 0x7c, 0x9a, 0x31,
  0x6a, 0xb5, 0x48, 0xcb, 0xa6, 0x22, 0xc6, 0x6d, 0xd9, 0x65, 0x3b, 0xae,
  0x8c, 0xe4, 0xc5, 0xff, 0x65, 0x7b, 0x4b, 0x73, 0x0b, 0x78, 0xa8, 0xd4,
  0xae, 0xf1, 0xff, 0xff, 0x00, 0x00, 0x00, 0x02, 0x10, 0x00, 0x00, 0x00,
  0x14, 0x00, 0x00, 0x00, 0x10, 0x00, 0x00, 0x00, 0x24, 0x00, 0x00, 0x00,
  0x01, 0x00, 0x00, 0x00, 0x04, 0x00, 0x00, 0x00, 0x12, 0x00, 0x00, 0x00,
  0x63, 0x6f, 0x6e, 0x76, 0x31, 0x64, 0x2f, 0x63, 0x6f, 0x6e, 0x76, 0x31,
  0x64, 0x5f, 0x62, 0x69, 0x61, 0x73, 0x00, 0x00, 0x54, 0xf5, 0xff, 0xff,
  0x14, 0x00, 0x00, 0x00, 0x04, 0x00, 0x00, 0x00, 0x01, 0x00, 0x00, 0x00,
  0x00, 0x00, 0x00, 0x00, 0x00, 0x00, 0x00, 0x00, 0x01, 0x00, 0x00, 0x00,
  0xef, 0xa3, 0x92, 0x3b, 0x10, 0x00, 0x00, 0x00, 0x01, 0x00, 0x00, 0x00,
  0x29, 0x00, 0x00, 0x00, 0xeb, 0xff, 0xff, 0xff, 0xd8, 0xff, 0xff, 0xff,
  0x1a, 0xf2, 0xff, 0xff, 0x00, 0x00, 0x00, 0x03, 0x10, 0x00, 0x00, 0x00,
  0x13, 0x00, 0x00, 0x00, 0x1c, 0x00, 0x00, 0x00, 0x28, 0x00, 0x00, 0x00,
  0x04, 0x00, 0x00, 0x00, 0x01, 0x00, 0x00, 0x00, 0x01, 0x00, 0x00, 0x00,
  0x80, 0x00, 0x00, 0x00, 0x04, 0x00, 0x00, 0x00, 0x0a, 0x00, 0x00, 0x00,
  0x72, 0x65, 0x5f, 0x6c, 0x75, 0x2f, 0x52, 0x65, 0x6c, 0x75, 0x00, 0x00,
  0x64, 0xf7, 0xff, 0xff, 0x30, 0x00, 0x00, 0x00, 0x24, 0x00, 0x00, 0x00,
  0x18, 0x00, 0x00, 0x00, 0x04, 0x00, 0x00, 0x00, 0x01, 0x00, 0x00, 0x00,
  0x00, 0x00, 0x00, 0x00, 0x00, 0x00, 0x00, 0x00, 0x00, 0x00, 0x00, 0x00,
  0x01, 0x00, 0x00, 0x00, 0x00, 0x00, 0x80, 0x3f, 0x01, 0x00, 0x00, 0x00,
  0x00, 0x00, 0x7f, 0x43, 0x01, 0x00, 0x00, 0x00, 0x00, 0x00, 0x00, 0x00,
  0x92, 0xf2, 0xff, 0xff, 0x00, 0x00, 0x00, 0x02, 0x10, 0x00, 0x00, 0x00,
  0x12, 0x00, 0x00, 0x00, 0x10, 0x00, 0x00, 0x00, 0x28, 0x00, 0x00, 0x00,
  0x01, 0x00, 0x00, 0x00, 0x08, 0x00, 0x00, 0x00, 0x14, 0x00, 0x00, 0x00,
  0x63, 0x6f, 0x6e, 0x76, 0x31, 0x64, 0x5f, 0x31, 0x2f, 0x63, 0x6f, 0x6e,
  0x76, 0x31, 0x64, 0x5f, 0x62, 0x69, 0x61, 0x73, 0x00, 0x00, 0x00, 0x00,
  0x3c, 0xf6, 0xff, 0xff, 0x14, 0x00, 0x00, 0x00, 0x04, 0x00, 0x00, 0x00,
  0x01, 0x00, 0x00, 0x00, 0x00, 0x00, 0x00, 0x00, 0x00, 0x00, 0x00, 0x00,
  0x01, 0x00, 0x00, 0x00, 0xcd, 0x5f, 0xa4, 0x3b, 0x20, 0x00, 0x00, 0x00,
  0x14, 0x00, 0x00, 0x00, 0x0b, 0x00, 0x00, 0x00, 0x13, 0x00, 0x00, 0x00,
  0xa3, 0xff, 0xff, 0xff, 0xe7, 0xff, 0xff, 0xff, 0xab, 0xff, 0xff, 0xff,
  0xe4, 0xff, 0xff, 0xff, 0xc3, 0xff, 0xff, 0xff, 0x12, 0xf3, 0xff, 0xff,
  0x00, 0x00, 0x00, 0x02, 0x10, 0x00, 0x00, 0x00, 0x11, 0x00, 0x00, 0x00,
  0x10, 0x00, 0x00, 0x00, 0x28, 0x00, 0x00, 0x00, 0x01, 0x00, 0x00, 0x00,
  0x08, 0x00, 0x00, 0x00, 0x14, 0x00, 0x00, 0x00, 0x63, 0x6f, 0x6e, 0x76,
  0x31, 0x64, 0x5f, 0x34, 0x2f, 0x63, 0x6f, 0x6e, 0x76, 0x31, 0x64, 0x5f,
  0x62, 0x69, 0x61, 0x73, 0x00, 0x00, 0x00, 0x00, 0xbc, 0xf6, 0xff, 0xff,
  0x18, 0x00, 0x00, 0x00, 0x04, 0x00, 0x00, 0x00, 0x01, 0x00, 0x00, 0x00,
  0x00, 0x00, 0x00, 0x00, 0x00, 0x00, 0x00, 0x00, 0x00, 0x00, 0x00, 0x00,
  0x01, 0x00, 0x00, 0x00, 0xa8, 0x14, 0xe0, 0x3b, 0x20, 0x00, 0x00, 0x00,
  0xe8, 0xff, 0xff, 0xff, 0xce, 0xff, 0xff, 0xff, 0xf1, 0xff, 0xff, 0xff,
  0x67, 0x00, 0x00, 0x00, 0x5f, 0x00, 0x00, 0x00, 0xee, 0xff, 0xff, 0xff,
  0xf8, 0xff, 0xff, 0xff, 0xe4, 0xff, 0xff, 0xff, 0x96, 0xf3, 0xff, 0xff,
  0x00, 0x00, 0x00, 0x03, 0x10, 0x00, 0x00, 0x00, 0x10, 0x00, 0x00, 0x00,
  0x1c, 0x00, 0x00, 0x00, 0x3c, 0x00, 0x00, 0x00, 0x04, 0x00, 0x00, 0x00,
  0x10, 0x00, 0x00, 0x00, 0x01, 0x00, 0x00, 0x00, 0x03, 0x00, 0x00, 0x00,
  0x08, 0x00, 0x00, 0x00, 0x1c, 0x00, 0x00, 0x00, 0x63, 0x6f, 0x6e, 0x76,
  0x31, 0x64, 0x5f, 0x32, 0x2f, 0x63, 0x6f, 0x6e, 0x76, 0x31, 0x64, 0x2f,
  0x45, 0x78, 0x70, 0x61, 0x6e, 0x64, 0x44, 0x69, 0x6d, 0x73, 0x5f, 0x31,
  0x00, 0x00, 0x00, 0x00, 0xf4, 0xf8, 0xff, 0xff, 0x2c, 0x00, 0x00, 0x00,
  0x20, 0x00, 0x00, 0x00, 0x14, 0x00, 0x00, 0x00, 0x04, 0x00, 0x00, 0x00,
  0x01, 0x00, 0x00, 0x00, 0x95, 0x00, 0x00, 0x00, 0x00, 0x00, 0x00, 0x00,
  0x01, 0x00, 0x00, 0x00, 0x63, 0x3a, 0xa8, 0x3b, 0x01, 0x00, 0x00, 0x00,
  0x6b, 0xea, 0x0b, 0x3f, 0x01, 0x00, 0x00, 0x00, 0xe6, 0x39, 0x43, 0xbf,
  0x80, 0x01, 0x00, 0x00, 0xc2, 0xb4, 0x3a, 0x8a, 0x77, 0x6c, 0xa2, 0x2e,
  0xc5, 0x79, 0x84, 0x4c, 0x85, 0x8f, 0x39, 0x93, 0x94, 0x48, 0x63, 0x67,
  0x6e, 0x97, 0x9f, 0x85, 0xbe, 0x7a, 0x7e, 0x95, 0x69, 0x93, 0xab, 0x92,
  0x41, 0x51, 0x71, 0xe2, 0xbe, 0x83, 0x5e, 0xa7, 0x35, 0x71, 0xb9, 0x7d,
  0x85, 0x3a, 0x5b, 0xce, 0x5b, 0x85, 0x82, 0x56, 0x81, 0x55, 0x91, 0x91,
  0xa1, 0x5a, 0x8c, 0x77, 0xb8, 0xa0, 0x96, 0x65, 0xa4, 0x6c, 0x7b, 0x78,
  0x5f, 0x8e, 0x8d, 0x8c, 0x65, 0x99, 0x78, 0x7b, 0x75, 0x98, 0x6e, 0x99,
  0x98, 0xa4, 0x97, 0x57, 0xbc, 0x7d, 0x5a, 0x71, 0xac, 0x51, 0x5f, 0x9c,
  0xbe, 0x8e, 0x9c, 0x74, 0x77, 0xba, 0x81, 0x7f, 0x6d, 0x69, 0x5c, 0x80,
  0xa4, 0x5f, 0x9c, 0x84, 0x65, 0x60, 0x78, 0x7b, 0x8c, 0x87, 0x5c, 0x62,
  0x67, 0xaf, 0xb9, 0x83, 0x5d, 0xaa, 0x36, 0x45, 0x6b, 0x86, 0x87, 0x15,
  0x81, 0x74, 0x00, 0x9e, 0x9f, 0x93, 0x2d, 0x33, 0xa9, 0x24, 0xdf, 0x51,
  0xb9, 0xc9, 0xdc, 0xa7, 0xb6, 0xad, 0xac, 0x5f, 0xae, 0x9f, 0xa2, 0x72,
  0x77, 0xd8, 0x6b, 0xa7, 0x98, 0x70, 0x08, 0xbc, 0x89, 0x63, 0xa9, 0xa1,
  0x9f, 0xcd, 0xbb, 0xa7, 0x6c, 0x9b, 0x7d, 0x86, 0xff, 0xd8, 0xe8, 0x9e,
  0x4b, 0xcf, 0x92, 0x9b, 0x9e, 0x69, 0xdd, 0x7c, 0x52, 0xd6, 0x91, 0xaa,
  0x71, 0xc2, 0x89, 0x66, 0xaf, 0xad, 0xa7, 0x73, 0xaf, 0x84, 0x4e, 0x8f,
  0xac, 0x88, 0x73, 0x72, 0x3c, 0x67, 0xd7, 0xc0, 0xa5, 0x64, 0xac, 0xbe,
  0x3c, 0xca, 0x83, 0xdc, 0xdc, 0xa8, 0x53, 0xc6, 0xa1, 0xd2, 0xd5, 0x36,
  0x41, 0x5f, 0x65, 0x9f, 0x69, 0xd6, 0x9c, 0x70, 0x3e, 0x84, 0xb6, 0x28,
  0x3a, 0xa3, 0x34, 0x89, 0x9d, 0x5d, 0xbb, 0xc9, 0x51, 0x8d, 0x2f, 0x9a,
  0x63, 0x55, 0xac, 0x72, 0x9e, 0xad, 0xe8, 0xb6, 0xbb, 0x88, 0x75, 0x4d,
  0xa1, 0xbb, 0xa3, 0x8d, 0x5e, 0xb9, 0xa9, 0xc2, 0xac, 0xcc, 0x7f, 0x58,
  0xbd, 0x82, 0x87, 0xa1, 0x8b, 0xca, 0x63, 0xbc, 0x39, 0x70, 0xa7, 0x16,
  0x7c, 0xbd, 0xa2, 0x7b, 0x8c, 0xa6, 0x5b, 0xb7, 0xc2, 0x7c, 0x7f, 0xa4,
  0xba, 0x86, 0x9c, 0xa6, 0x3f, 0xd7, 0x5c, 0x65, 0x8b, 0xb8, 0x7d, 0xa1,
  0x9d, 0xa2, 0x7c, 0x4b, 0x81, 0x96, 0xd9, 0x74, 0x80, 0x62, 0x3a, 0x83,
  0xae, 0x9b, 0xee, 0x53, 0x94, 0x8e, 0xb6, 0x80, 0xb4, 0xa6, 0x66, 0x71,
  0x8c, 0x98, 0xa6, 0x95, 0x5b, 0x69, 0x5c, 0x7a, 0x62, 0xa0, 0x99, 0xa2,
  0x60, 0x7b, 0x8d, 0x73, 0x58, 0x89, 0xae, 0x5f, 0x4c, 0x70, 0xa8, 0x88,
  0xa9, 0xa0, 0x49, 0x80, 0x83, 0x8c, 0x71, 0x55, 0x5b, 0xff, 0x89, 0xb0,
  0x8c, 0x82, 0xe8, 0xab, 0x5f, 0x66, 0x5d, 0x6a, 0x96, 0x6f, 0x58, 0xd6,
  0xaa, 0x25, 0xad, 0x79, 0xa2, 0xf5, 0xff, 0xff, 0x00, 0x00, 0x00, 0x02,
  0x10, 0x00, 0x00, 0x00, 0x0f, 0x00, 0x00, 0x00, 0x10, 0x00, 0x00, 0x00,
  0x28, 0x00, 0x00, 0x00, 0x01, 0x00, 0x00, 0x00, 0x10, 0x00, 0x00, 0x00,
  0x14, 0x00, 0x00, 0x00, 0x63, 0x6f, 0x6e, 0x76, 0x31, 0x64, 0x5f, 0x32,
  0x2f, 0x63, 0x6f, 0x6e, 0x76, 0x31, 0x64, 0x5f, 0x62, 0x69, 0x61, 0x73,
  0x00, 0x00, 0x00, 0x00, 0x4c, 0xf9, 0xff, 0xff, 0x14, 0x00, 0x00, 0x00,
  0x04, 0x00, 0x00, 0x00, 0x01, 0x00, 0x00, 0x00, 0x00, 0x00, 0x00, 0x00,
  0x00, 0x00, 0x00, 0x00, 0x01, 0x00, 0x00, 0x00, 0x63, 0x3a, 0xa8, 0x3b,
  0x40, 0x00, 0x00, 0x00, 0x55, 0x00, 0x00, 0x00, 0xaf, 0xff, 0xff, 0xff,
  0xd0, 0xff, 0xff, 0xff, 0xdf, 0xff, 0xff, 0xff, 0xd6, 0xff, 0xff, 0xff,
  0x4a, 0x00, 0x00, 0x00, 0x04, 0x00, 0x00, 0x00, 0xb4, 0xff, 0xff, 0xff,
  0xdb, 0xff, 0xff, 0xff, 0xaf, 0xff, 0xff, 0xff, 0xed, 0xff, 0xff, 0xff,
  0x22, 0x00, 0x00, 0x00, 0x20, 0x00, 0x00, 0x00, 0xf9, 0xff, 0xff, 0xff,
  0xe9, 0xff, 0xff, 0xff, 0xcd, 0xff, 0xff, 0xff, 0x42, 0xf6, 0xff, 0xff,
  0x00, 0x00, 0x00, 0x02, 0x10, 0x00, 0x00, 0x00, 0x0e, 0x00, 0x00, 0x00,
  0x10, 0x00, 0x00, 0x00, 0x28, 0x00, 0x00, 0x00, 0x01, 0x00, 0x00, 0x00,
  0x20, 0x00, 0x00, 0x00, 0x14, 0x00, 0x00, 0x00, 0x63, 0x6f, 0x6e, 0x76,
  0x31, 0x64, 0x5f, 0x33, 0x2f, 0x63, 0x6f, 0x6e, 0x76, 0x31, 0x64, 0x5f,
  0x62, 0x69, 0x61, 0x73, 0x00, 0x00, 0x00, 0x00, 0xec, 0xf9, 0xff, 0xff,
  0x18, 0x00, 0x00, 0x00, 0x04, 0x00, 0x00, 0x00, 0x01, 0x00, 0x00, 0x00,
  0x00, 0x00, 0x00, 0x00, 0x00, 0x00, 0x00, 0x00, 0x00, 0x00, 0x00, 0x00,
  0x01, 0x00, 0x00, 0x00, 0x2d, 0xea, 0xd6, 0x3b, 0x80, 0x00, 0x00, 0x00,
  0xc8, 0xff, 0xff, 0xff, 0x0f, 0x00, 0x00, 0x00, 0x68, 0x00, 0x00, 0x00,
  0xfc, 0xff, 0xff, 0xff, 0xd3, 0xff, 0xff, 0xff, 0xcc, 0xff, 0xff, 0xff,
  0xf9, 0xff, 0xff, 0xff, 0x9c, 0xff, 0xff, 0xff, 0x25, 0x00, 0x00, 0x00,
  0xed, 0xff, 0xff, 0xff, 0xd7, 0xff, 0xff, 0xff, 0xed, 0xff, 0xff, 0xff,
  0xc2, 0xff, 0xff, 0xff, 0xdc, 0xff, 0xff, 0xff, 0xf3, 0xff, 0xff, 0xff,
  0xfc, 0xff, 0xff, 0xff, 0xdb, 0xff, 0xff, 0xff, 0xdc, 0xff, 0xff, 0xff,
  0xeb, 0xff, 0xff, 0xff, 0xad, 0xff, 0xff, 0xff, 0xeb, 0xff, 0xff, 0xff,
  0xca, 0xff, 0xff, 0xff, 0xc2, 0xff, 0xff, 0xff, 0xf6, 0xff, 0xff, 0xff,
  0x40, 0x00, 0x00, 0x00, 0xe4, 0xff, 0xff, 0xff, 0xc1, 0xff, 0xff, 0xff,
  0xfd, 0xff, 0xff, 0xff, 0xc2, 0xff, 0xff, 0xff, 0x15, 0x00, 0x00, 0x00,
  0xea, 0xff, 0xff, 0xff, 0x8a, 0x00, 0x00, 0x00, 0x26, 0xf7, 0xff, 0xff,
  0x00, 0x00, 0x00, 0x03, 0x10, 0x00, 0x00, 0x00, 0x0d, 0x00, 0x00, 0x00,
  0x1c, 0x00, 0x00, 0x00, 0x3c, 0x00, 0x00, 0x00, 0x04, 0x00, 0x00, 0x00,
  0x08, 0x00, 0x00, 0x00, 0x01, 0x00, 0x00, 0x00, 0x03, 0x00, 0x00, 0x00,
  0x20, 0x00, 0x00, 0x00, 0x1c, 0x00, 0x00, 0x00, 0x63, 0x6f, 0x6e, 0x76,
  0x31, 0x64, 0x5f, 0x34, 0x2f, 0x63, 0x6f, 0x6e, 0x76, 0x31, 0x64, 0x2f,
  0x45, 0x78, 0x70, 0x61, 0x6e, 0x64, 0x44, 0x69, 0x6d, 0x73, 0x5f, 0x31,
  0x00, 0x00, 0x00, 0x00, 0x84, 0xfc, 0xff, 0xff, 0x2c, 0x00, 0x00, 0x00,
  0x20, 0x00, 0x00, 0x00, 0x14, 0x00, 0x00, 0x00, 0x04, 0x00, 0x00, 0x00,
  0x01, 0x00, 0x00, 0x00, 0x7a, 0x00, 0x00, 0x00, 0x00, 0x00, 0x00, 0x00,
  0x01, 0x00, 0x00, 0x00, 0xa8, 0x14, 0xe0, 0x3b, 0x01, 0x00, 0x00, 0x00,
  0x1f, 0xc7, 0x68, 0x3f, 0x01, 0x00, 0x00, 0x00, 0x07, 0xa2, 0x55, 0xbf,
  0x00, 0x03, 0x00, 0x00, 0x73, 0x73, 0x8c, 0x57, 0x7f, 0x95, 0x85, 0x86,
  0xa3, 0x5b, 0x9c, 0x86, 0xa9, 0x6d, 0x80, 0x65, 0x68, 0x67, 0x32, 0x62,
  0x49, 0xae, 0x5b, 0x6b, 0x57, 0x8c, 0x8e, 0x6f, 0x70, 0x73, 0x55, 0x8f,
  0xae, 0x82, 0x62, 0x31, 0x89, 0x84, 0x6a, 0x74, 0x85, 0x90, 0x71, 0xa1,
  0x8a, 0x8c, 0x6c, 0x97, 0xac, 0x27, 0x46, 0x9a, 0x6e, 0xb9, 0x93, 0x68,
  0x66, 0x8c, 0x73, 0x99, 0x97, 0xc1, 0x60, 0x9f, 0x77, 0x73, 0x74, 0x65,
  0x8b, 0xb1, 0x8a, 0x77, 0x7f, 0x95, 0x9e, 0x82, 0xa2, 0x93, 0x83, 0x8c,
  0x79, 0x38, 0x64, 0x84, 0x59, 0x90, 0x75, 0x7f, 0x95, 0x9b, 0x92, 0xa2,
  0x71, 0x7b, 0x5d, 0x58, 0x74, 0x90, 0x7c, 0x95, 0x79, 0x80, 0x65, 0xa9,
  0xad, 0x6d, 0xa1, 0x8d, 0x65, 0x67, 0x73, 0x4c, 0x67, 0xa0, 0xc9, 0x68,
  0x60, 0x70, 0x97, 0x65, 0x77, 0x73, 0x7d, 0x61, 0x97, 0x68, 0xb0, 0x1a,
  0x98, 0x7f, 0x84, 0x83, 0xa0, 0x59, 0x71, 0x8d, 0x68, 0x89, 0x98, 0x6b,
  0x90, 0x7a, 0x80, 0x55, 0x88, 0x86, 0x87, 0x8d, 0x79, 0x5c, 0x96, 0x78,
  0x89, 0x56, 0x89, 0x7c, 0x6f, 0x61, 0x9e, 0x6d, 0x52, 0x91, 0x9b, 0x81,
  0x66, 0x83, 0x93, 0xaa, 0x8b, 0x90, 0x71, 0x83, 0x6e, 0x82, 0x8f, 0x97,
  0x8e, 0x92, 0x8e, 0x70, 0x8f, 0x86, 0x96, 0x78, 0x90, 0x82, 0x91, 0xb8,
  0x8f, 0x8d, 0x7b, 0x57, 0x82, 0x69, 0x77, 0x55, 0x80, 0x2d, 0x58, 0x45,
  0x6e, 0x8a, 0x7a, 0x78, 0x5a, 0x63, 0x7c, 0x90, 0x6c, 0x6d, 0x7c, 0x5d,
  0x69, 0x3e, 0x81, 0x7d, 0x5a, 0x95, 0x5d, 0x46, 0x69, 0x99, 0x6f, 0x40,
  0x97, 0x65, 0x53, 0x7a, 0x59, 0x28, 0x66, 0x71, 0x8c, 0x91, 0x97, 0x9e,
  0x91, 0x91, 0x6c, 0x71, 0x86, 0x91, 0x61, 0x81, 0x89, 0x8d, 0x8b, 0x6f,
  0x7c, 0x6f, 0x62, 0x5f, 0x8c, 0x76, 0x71, 0x58, 0x68, 0x59, 0x6a, 0x81,
  0x7b, 0x85, 0x93, 0x69, 0x70, 0x73, 0x72, 0x6b, 0x5c, 0x89, 0x88, 0x45,
  0xac, 0x8d, 0x7f, 0x91, 0x84, 0x65, 0x57, 0x71, 0x92, 0x89, 0x87, 0x58,
  0x5f, 0x7e, 0x6f, 0x70, 0x66, 0x57, 0x9c, 0x60, 0x7a, 0x9e, 0xa7, 0x6d,
  0x89, 0x99, 0x6b, 0x75, 0x44, 0x94, 0x7b, 0xa1, 0xc2, 0x71, 0x99, 0x6d,
  0xac, 0x61, 0x87, 0x7d, 0x96, 0x31, 0x6f, 0x8b, 0x89, 0x62, 0x82, 0xa2,
  0x8f, 0x99, 0x91, 0x47, 0x30, 0x4c, 0x7b, 0x68, 0xb4, 0x62, 0x7a, 0x84,
  0x81, 0x87, 0x69, 0x52, 0x56, 0x5b, 0x74, 0x7f, 0x5b, 0x7d, 0x69, 0x53,
  0x91, 0x73, 0x73, 0x89, 0x5f, 0x93, 0x86, 0x84, 0x9b, 0x9c, 0xb7, 0x2b,
  0x75, 0x79, 0x8c, 0x42, 0xb9, 0x7c, 0x84, 0x62, 0x6b, 0x4e, 0xab, 0x79,
  0x67, 0x65, 0x5a, 0x56, 0x59, 0x8d, 0x94, 0x4b, 0xaa, 0x43, 0x6d, 0x8a,
  0x55, 0x92, 0x7a, 0x95, 0x43, 0x65, 0x7c, 0x6c, 0x75, 0x40, 0x8e, 0x0d,
  0x73, 0x91, 0x63, 0x8b, 0x8c, 0x61, 0x61, 0x79, 0x6c, 0x56, 0x5d, 0x8b,
  0x86, 0x3b, 0x6b, 0x6f, 0x7d, 0x8a, 0x73, 0xae, 0x39, 0x6a, 0x5e, 0x90,
  0x4e, 0x72, 0x6c, 0x54, 0x6c, 0xb0, 0x81, 0x00, 0x55, 0x6c, 0x89, 0x9f,
  0x8c, 0x57, 0x6d, 0xa4, 0x86, 0x80, 0x44, 0x63, 0x61, 0x90, 0x56, 0x59,
  0x87, 0x6c, 0x63, 0x98, 0x45, 0x89, 0x7a, 0xc3, 0x77, 0x8c, 0x9f, 0x4b,
  0x8d, 0xc1, 0x7b, 0x72, 0x9c, 0x59, 0x8e, 0x78, 0x78, 0x74, 0x74, 0xa1,
  0x6c, 0xa2, 0x6e, 0x96, 0x8b, 0x7b, 0x60, 0x83, 0x68, 0x9d, 0x9b, 0x8d,
  0x7c, 0x84, 0x61, 0xff, 0x5a, 0x5b, 0x55, 0x83, 0x5f, 0x96, 0x89, 0x5a,
  0x95, 0x72, 0x52, 0x58, 0x64, 0x76, 0x54, 0x78, 0x61, 0x7d, 0x69, 0x7d,
  0x59, 0x70, 0x74, 0x8c, 0x7e, 0x68, 0x78, 0x74, 0x6a, 0x7e, 0x4b, 0x8a,
  0x8e, 0x87, 0x4d, 0x8c, 0x8c, 0xd5, 0x65, 0x51, 0x7d, 0x85, 0x7f, 0x70,
  0x7a, 0x4e, 0x78, 0x72, 0x62, 0x5b, 0x97, 0x85, 0x63, 0x8f, 0x82, 0x5c,
  0x67, 0x56, 0x7a, 0x95, 0x67, 0x87, 0x72, 0x4f, 0x6c, 0x86, 0x90, 0x7d,
  0x66, 0x89, 0x75, 0x8a, 0x8a, 0x59, 0x72, 0x5c, 0x83, 0x4b, 0x84, 0x85,
  0x8b, 0x60, 0x91, 0x62, 0x7e, 0x99, 0x4d, 0x77, 0x55, 0x84, 0x61, 0x7e,
  0x49, 0x81, 0x5e, 0x50, 0x57, 0x83, 0x56, 0x8f, 0x6a, 0x5b, 0x7f, 0x6d,
  0x7b, 0x56, 0x7a, 0x7b, 0x7b, 0x57, 0x7d, 0x65, 0x90, 0x52, 0x7f, 0x6d,
  0x72, 0x5e, 0x74, 0x6e, 0x7a, 0x8c, 0x65, 0x4b, 0x89, 0x58, 0x52, 0x8f,
  0x65, 0x5c, 0x57, 0x86, 0x91, 0x6c, 0x7d, 0x44, 0x55, 0x5d, 0x85, 0x7d,
  0x81, 0x86, 0x8b, 0x87, 0x5d, 0x82, 0x8c, 0x54, 0x92, 0x6b, 0x92, 0x6c,
  0x5a, 0x64, 0x61, 0x62, 0x8f, 0x64, 0x54, 0x76, 0x5f, 0x7f, 0x94, 0x8d,
  0x6a, 0x66, 0x6e, 0x5b, 0x8b, 0x78, 0x59, 0x52, 0x84, 0x68, 0x92, 0x56,
  0x63, 0x89, 0x5d, 0x5c, 0x63, 0x2a, 0x5c, 0x90, 0x62, 0x82, 0x89, 0x62,
  0x86, 0x5d, 0x78, 0x81, 0x6f, 0x5d, 0x62, 0x98, 0x84, 0x1e, 0x5f, 0x5a,
  0x96, 0x90, 0x94, 0x71, 0x6b, 0x59, 0x98, 0x74, 0x88, 0x68, 0x77, 0x6c,
  0x88, 0x67, 0x5d, 0x6e, 0x71, 0x74, 0x38, 0x9f, 0x5a, 0x4c, 0x89, 0x6e,
  0x85, 0x7d, 0x68, 0x72, 0x6a, 0xa6, 0x79, 0x76, 0xbe, 0x65, 0x6e, 0x84,
  0x93, 0x9a, 0x87, 0x97, 0x8d, 0x58, 0x88, 0x98, 0x92, 0x89, 0x73, 0x73,
  0x5c, 0x9b, 0x6e, 0xac, 0x64, 0x64, 0x6d, 0x91, 0x62, 0x96, 0x8f, 0x65,
  0x69, 0x99, 0x64, 0x6c, 0x9d, 0x84, 0x73, 0x86, 0x8f, 0x87, 0x74, 0x8e,
  0x49, 0x60, 0x5e, 0x84, 0x6a, 0x8a, 0x77, 0x7b, 0x74, 0x9b, 0x72, 0x77,
  0x88, 0x9c, 0x85, 0x94, 0xb2, 0xfa, 0xff, 0xff, 0x00, 0x00, 0x00, 0x03,
  0x10, 0x00, 0x00, 0x00, 0x0c, 0x00, 0x00, 0x00, 0x14, 0x00, 0x00, 0x00,
  0x38, 0x00, 0x00, 0x00, 0x02, 0x00, 0x00, 0x00, 0x06, 0x00, 0x00, 0x00,
  0x20, 0x00, 0x00, 0x00, 0x16, 0x00, 0x00, 0x00, 0x64, 0x65, 0x6e, 0x73,
  0x65, 0x2f, 0x6b, 0x65, 0x72, 0x6e, 0x65, 0x6c, 0x2f, 0x74, 0x72, 0x61,
  0x6e, 0x73, 0x70, 0x6f, 0x73, 0x65, 0x00, 0x00, 0x0c, 0x00, 0x14, 0x00,
  0x04, 0x00, 0x08, 0x00, 0x0c, 0x00, 0x10, 0x00, 0x0c, 0x00, 0x00, 0x00,
  0x2c, 0x00, 0x00, 0x00, 0x20, 0x00, 0x00, 0x00, 0x14, 0x00, 0x00, 0x00,
  0x04, 0x00, 0x00, 0x00, 0x01, 0x00, 0x00, 0x00, 0xab, 0x00, 0x00, 0x00,
  0x00, 0x00, 0x00, 0x00, 0x01, 0x00, 0x00, 0x00, 0xa9, 0xf4, 0xdb, 0x3b,
  0x01, 0x00, 0x00, 0x00, 0x84, 0x2d, 0x11, 0x3f, 0x01, 0x00, 0x00, 0x00,
  0xf2, 0x81, 0x92, 0xbf, 0xc0, 0x00, 0x00, 0x00, 0x62, 0xb9, 0xb7, 0x7f,
  0x86, 0xd3, 0xdd, 0xb6, 0x87, 0xd3, 0xba, 0x5e, 0xe8, 0x8f, 0xa5, 0x7a,
  0x8f, 0xc6, 0xce, 0x48, 0x86, 0xd8, 0xdd, 0xc8, 0x77, 0xe5, 0xd3, 0x65,
  0x61, 0xa1, 0x83, 0xc1, 0x77, 0xa5, 0x96, 0xc2, 0xb8, 0xd6, 0xc8, 0xb3,
  0xa8, 0xc4, 0xda, 0xdc, 0xab, 0xd1, 0xb1, 0xc1, 0xc7, 0xbd, 0xa3, 0xc8,
  0x79, 0x92, 0x9b, 0xb5, 0x81, 0xbb, 0x8e, 0xad, 0x3f, 0xa7, 0x7b, 0xc3,
  0x9b, 0xa0, 0xd0, 0x69, 0x61, 0x7e, 0x8c, 0xe2, 0xc7, 0xc8, 0xaa, 0x78,
  0x9e, 0x85, 0x98, 0xcc, 0xe5, 0xb2, 0x81, 0x52, 0x89, 0xda, 0xb6, 0x86,
  0xc3, 0xba, 0xd7, 0x60, 0x5a, 0x7d, 0xad, 0xc4, 0xd8, 0xb1, 0x8d, 0xf6,
  0xbd, 0xd7, 0x8b, 0x7c, 0x77, 0x26, 0x87, 0x94, 0xc0, 0xb0, 0x83, 0xb6,
  0x84, 0x7a, 0xcc, 0x8a, 0xd8, 0x8d, 0xc8, 0x79, 0xcb, 0x8e, 0xa1, 0xec,
  0xff, 0x98, 0xde, 0xf5, 0x82, 0x85, 0xbe, 0xd7, 0xed, 0x94, 0xaf, 0xc9,
  0x95, 0x87, 0xd9, 0xe0, 0xe7, 0x6e, 0xbe, 0x80, 0xbd, 0x7d, 0xad, 0xee,
  0xd8, 0xa8, 0xa9, 0xb1, 0x6f, 0x5f, 0xcc, 0xb3, 0xdc, 0xb4, 0xda, 0x9a,
  0xbd, 0x8c, 0x85, 0x71, 0xae, 0xa3, 0x73, 0xdd, 0x90, 0x79, 0xc4, 0x00,
  0xde, 0x8e, 0x97, 0xd4, 0xd6, 0x5c, 0x83, 0x1e, 0xd5, 0xeb, 0x9e, 0xc6,
  0xc3, 0x56, 0xd4, 0x25, 0xeb, 0xc2, 0x70, 0x77, 0xfa, 0xfb, 0xff, 0xff,
  0x00, 0x00, 0x00, 0x02, 0x10, 0x00, 0x00, 0x00, 0x0b, 0x00, 0x00, 0x00,
  0x14, 0x00, 0x00, 0x00, 0x34, 0x00, 0x00, 0x00, 0x02, 0x00, 0x00, 0x00,
  0x01, 0x00, 0x00, 0x00, 0x04, 0x00, 0x00, 0x00, 0x1e, 0x00, 0x00, 0x00,
  0x6d, 0x61, 0x78, 0x5f, 0x70, 0x6f, 0x6f, 0x6c, 0x69, 0x6e, 0x67, 0x31,
  0x64, 0x2f, 0x45, 0x78, 0x70, 0x61, 0x6e, 0x64, 0x44, 0x69, 0x6d, 0x73,
  0x2f, 0x64, 0x69, 0x6d, 0x5f, 0x30, 0x00, 0x00, 0x48, 0xfb, 0xff, 0xff,
  0x10, 0x00, 0x00, 0x00, 0x01, 0x00, 0x00, 0x00, 0x80, 0x00, 0x00, 0x00,
  0x01, 0x00, 0x00, 0x00, 0x04, 0x00, 0x00, 0x00, 0x5a, 0xfc, 0xff, 0xff,
  0x00, 0x00, 0x00, 0x02, 0x10, 0x00, 0x00, 0x00, 0x0a, 0x00, 0x00, 0x00,
  0x10, 0x00, 0x00, 0x00, 0x30, 0x00, 0x00, 0x00, 0x01, 0x00, 0x00, 0x00,
  0x06, 0x00, 0x00, 0x00, 0x11, 0x00, 0x00, 0x00, 0x64, 0x65, 0x6e, 0x73,
  0x65, 0x2f, 0x4d, 0x61, 0x74, 0x4d, 0x75, 0x6c, 0x5f, 0x62, 0x69, 0x61,
  0x73, 0x00, 0x00, 0x00, 0x0c, 0x00, 0x0c, 0x00, 0x00, 0x00, 0x00, 0x00,
  0x04, 0x00, 0x08, 0x00, 0x0c, 0x00, 0x00, 0x00, 0x18, 0x00, 0x00, 0x00,
  0x04, 0x00, 0x00, 0x00, 0x01, 0x00, 0x00, 0x00, 0x00, 0x00, 0x00, 0x00,
  0x00, 0x00, 0x00, 0x00, 0x00, 0x00, 0x00, 0x00, 0x01, 0x00, 0x00, 0x00,
  0xa9, 0xf4, 0xdb, 0x3b, 0x18, 0x00, 0x00, 0x00, 0xdb, 0xff, 0xff, 0xff,
  0xe7, 0xff, 0xff, 0xff, 0xc5, 0xff, 0xff, 0xff, 0x39, 0x00, 0x00, 0x00,
  0x68, 0x00, 0x00, 0x00, 0xb7, 0xff, 0xff, 0xff, 0xde, 0xfc, 0xff, 0xff,
  0x00, 0x00, 0x00, 0x02, 0x10, 0x00, 0x00, 0x00, 0x09, 0x00, 0x00, 0x00,
  0x14, 0x00, 0x00, 0x00, 0x38, 0x00, 0x00, 0x00, 0x02, 0x00, 0x00, 0x00,
  0x01, 0x00, 0x00, 0x00, 0x04, 0x00, 0x00, 0x00, 0x20, 0x00, 0x00, 0x00,
  0x63, 0x6f, 0x6e, 0x76, 0x31, 0x64, 0x5f, 0x31, 0x2f, 0x63, 0x6f, 0x6e,
  0x76, 0x31, 0x64, 0x2f, 0x45, 0x78, 0x70, 0x61, 0x6e, 0x64, 0x44, 0x69,
  0x6d, 0x73, 0x2f, 0x64, 0x69, 0x6d, 0x5f, 0x30, 0x00, 0x00, 0x00, 0x00,
  0x30, 0xfc, 0xff, 0xff, 0x10, 0x00, 0x00, 0x00, 0x01, 0x00, 0x00, 0x00,
  0x01, 0x00, 0x00, 0x00, 0x40, 0x00, 0x00, 0x00, 0x04, 0x00, 0x00, 0x00,
  0x42, 0xfd, 0xff, 0xff, 0x00, 0x00, 0x00, 0x02, 0x10, 0x00, 0x00, 0x00,
  0x08, 0x00, 0x00, 0x00, 0x14, 0x00, 0x00, 0x00, 0x38, 0x00, 0x00, 0x00,
  0x02, 0x00, 0x00, 0x00, 0x01, 0x00, 0x00, 0x00, 0x04, 0x00, 0x00, 0x00,
  0x20, 0x00, 0x00, 0x00, 0x6d, 0x61, 0x78, 0x5f, 0x70, 0x6f, 0x6f, 0x6c,
  0x69, 0x6e, 0x67, 0x31, 0x64, 0x5f, 0x31, 0x2f, 0x45, 0x78, 0x70, 0x61,
  0x6e, 0x64, 0x44, 0x69, 0x6d, 0x73, 0x2f, 0x64, 0x69, 0x6d, 0x5f, 0x30,
  0x00, 0x00, 0x00, 0x00, 0x94, 0xfc, 0xff, 0xff, 0x10, 0x00, 0x00, 0x00,
  0x01, 0x00, 0x00, 0x00, 0x40, 0x00, 0x00, 0x00, 0x01, 0x00, 0x00, 0x00,
  0x08, 0x00, 0x00, 0x00, 0xa6, 0xfd, 0xff, 0xff, 0x00, 0x00, 0x00, 0x02,
  0x10, 0x00, 0x00, 0x00, 0x07, 0x00, 0x00, 0x00, 0x14, 0x00, 0x00, 0x00,
  0x38, 0x00, 0x00, 0x00, 0x02, 0x00, 0x00, 0x00, 0x01, 0x00, 0x00, 0x00,
  0x04, 0x00, 0x00, 0x00, 0x20, 0x00, 0x00, 0x00, 0x63, 0x6f, 0x6e, 0x76,
  0x31, 0x64, 0x5f, 0x32, 0x2f, 0x63, 0x6f, 0x6e, 0x76, 0x31, 0x64, 0x2f,
  0x45, 0x78, 0x70, 0x61, 0x6e, 0x64, 0x44, 0x69, 0x6d, 0x73, 0x2f, 0x64,
  0x69, 0x6d, 0x5f, 0x30, 0x00, 0x00, 0x00, 0x00, 0xf8, 0xfc, 0xff, 0xff,
  0x10, 0x00, 0x00, 0x00, 0x01, 0x00, 0x00, 0x00, 0x01, 0x00, 0x00, 0x00,
  0x20, 0x00, 0x00, 0x00, 0x08, 0x00, 0x00, 0x00, 0x0a, 0xfe, 0xff, 0xff,
  0x00, 0x00, 0x00, 0x02, 0x10, 0x00, 0x00, 0x00, 0x06, 0x00, 0x00, 0x00,
  0x14, 0x00, 0x00, 0x00, 0x38, 0x00, 0x00, 0x00, 0x02, 0x00, 0x00, 0x00,
  0x01, 0x00, 0x00, 0x00, 0x04, 0x00, 0x00, 0x00, 0x20, 0x00, 0x00, 0x00,
  0x6d, 0x61, 0x78, 0x5f, 0x70, 0x6f, 0x6f, 0x6c, 0x69, 0x6e, 0x67, 0x31,
  0x64, 0x5f, 0x32, 0x2f, 0x45, 0x78, 0x70, 0x61, 0x6e, 0x64, 0x44, 0x69,
  0x6d, 0x73, 0x2f, 0x64, 0x69, 0x6d, 0x5f, 0x30, 0x00, 0x00, 0x00, 0x00,
  0x5c, 0xfd, 0xff, 0xff, 0x10, 0x00, 0x00, 0x00, 0x01, 0x00, 0x00, 0x00,
  0x20, 0x00, 0x00, 0x00, 0x01, 0x00, 0x00, 0x00, 0x10, 0x00, 0x00, 0x00,
  0x6e, 0xfe, 0xff, 0xff, 0x00, 0x00, 0x00, 0x02, 0x10, 0x00, 0x00, 0x00,
  0x05, 0x00, 0x00, 0x00, 0x14, 0x00, 0x00, 0x00, 0x38, 0x00, 0x00, 0x00,
  0x02, 0x00, 0x00, 0x00, 0x01, 0x00, 0x00, 0x00, 0x04, 0x00, 0x00, 0x00,
  0x20, 0x00, 0x00, 0x00, 0x63, 0x6f, 0x6e, 0x76, 0x31, 0x64, 0x5f, 0x33,
  0x2f, 0x63, 0x6f, 0x6e, 0x76, 0x31, 0x64, 0x2f, 0x45, 0x78, 0x70, 0x61,
  0x6e, 0x64, 0x44, 0x69, 0x6d, 0x73, 0x2f, 0x64, 0x69, 0x6d, 0x5f, 0x30,
  0x00, 0x00, 0x00, 0x00, 0xc0, 0xfd, 0xff, 0xff, 0x10, 0x00, 0x00, 0x00,
  0x01, 0x00, 0x00, 0x00, 0x01, 0x00, 0x00, 0x00, 0x10, 0x00, 0x00, 0x00,
  0x10, 0x00, 0x00, 0x00, 0xd2, 0xfe, 0xff, 0xff, 0x00, 0x00, 0x00, 0x02,
  0x10, 0x00, 0x00, 0x00, 0x04, 0x00, 0x00, 0x00, 0x14, 0x00, 0x00, 0x00,
  0x38, 0x00, 0x00, 0x00, 0x02, 0x00, 0x00, 0x00, 0x01, 0x00, 0x00, 0x00,
  0x04, 0x00, 0x00, 0x00, 0x20, 0x00, 0x00, 0x00, 0x6d, 0x61, 0x78, 0x5f,
  0x70, 0x6f, 0x6f, 0x6c, 0x69, 0x6e, 0x67, 0x31, 0x64, 0x5f, 0x33, 0x2f,
  0x45, 0x78, 0x70, 0x61, 0x6e, 0x64, 0x44, 0x69, 0x6d, 0x73, 0x2f, 0x64,
  0x69, 0x6d, 0x5f, 0x30, 0x00, 0x00, 0x00, 0x00, 0x24, 0xfe, 0xff, 0xff,
  0x10, 0x00, 0x00, 0x00, 0x01, 0x00, 0x00, 0x00, 0x10, 0x00, 0x00, 0x00,
  0x01, 0x00, 0x00, 0x00, 0x20, 0x00, 0x00, 0x00, 0x36, 0xff, 0xff, 0xff,
  0x00, 0x00, 0x00, 0x02, 0x10, 0x00, 0x00, 0x00, 0x03, 0x00, 0x00, 0x00,
  0x14, 0x00, 0x00, 0x00, 0x38, 0x00, 0x00, 0x00, 0x02, 0x00, 0x00, 0x00,
  0x01, 0x00, 0x00, 0x00, 0x04, 0x00, 0x00, 0x00, 0x20, 0x00, 0x00, 0x00,
  0x63, 0x6f, 0x6e, 0x76, 0x31, 0x64, 0x5f, 0x34, 0x2f, 0x63, 0x6f, 0x6e,
  0x76, 0x31, 0x64, 0x2f, 0x45, 0x78, 0x70, 0x61, 0x6e, 0x64, 0x44, 0x69,
  0x6d, 0x73, 0x2f, 0x64, 0x69, 0x6d, 0x5f, 0x30, 0x00, 0x00, 0x00, 0x00,
  0x88, 0xfe, 0xff, 0xff, 0x10, 0x00, 0x00, 0x00, 0x01, 0x00, 0x00, 0x00,
  0x01, 0x00, 0x00, 0x00, 0x08, 0x00, 0x00, 0x00, 0x20, 0x00, 0x00, 0x00,
  0x9a, 0xff, 0xff, 0xff, 0x00, 0x00, 0x00, 0x02, 0x10, 0x00, 0x00, 0x00,
  0x02, 0x00, 0x00, 0x00, 0x14, 0x00, 0x00, 0x00, 0x38, 0x00, 0x00, 0x00,
  0x02, 0x00, 0x00, 0x00, 0x01, 0x00, 0x00, 0x00, 0x04, 0x00, 0x00, 0x00,
  0x20, 0x00, 0x00, 0x00, 0x6d, 0x61, 0x78, 0x5f, 0x70, 0x6f, 0x6f, 0x6c,
  0x69, 0x6e, 0x67, 0x31, 0x64, 0x5f, 0x34, 0x2f, 0x45, 0x78, 0x70, 0x61,
  0x6e, 0x64, 0x44, 0x69, 0x6d, 0x73, 0x2f, 0x64, 0x69, 0x6d, 0x5f, 0x30,
  0x00, 0x00, 0x00, 0x00, 0xec, 0xfe, 0xff, 0xff, 0x10, 0x00, 0x00, 0x00,
  0x01, 0x00, 0x00, 0x00, 0x08, 0x00, 0x00, 0x00, 0x01, 0x00, 0x00, 0x00,
  0x08, 0x00, 0x00, 0x00, 0x00, 0x00, 0x0e, 0x00, 0x18, 0x00, 0x08, 0x00,
  0x07, 0x00, 0x0c, 0x00, 0x10, 0x00, 0x14, 0x00, 0x0e, 0x00, 0x00, 0x00,
  0x00, 0x00, 0x00, 0x02, 0x10, 0x00, 0x00, 0x00, 0x01, 0x00, 0x00, 0x00,
  0x10, 0x00, 0x00, 0x00, 0x30, 0x00, 0x00, 0x00, 0x01, 0x00, 0x00, 0x00,
  0x03, 0x00, 0x00, 0x00, 0x1d, 0x00, 0x00, 0x00, 0x6d, 0x61, 0x78, 0x5f,
  0x70, 0x6f, 0x6f, 0x6c, 0x69, 0x6e, 0x67, 0x31, 0x64, 0x5f, 0x34, 0x2f,
  0x53, 0x71, 0x75, 0x65, 0x65, 0x7a, 0x65, 0x5f, 0x73, 0x68, 0x61, 0x70,
  0x65, 0x00, 0x00, 0x00, 0x58, 0xff, 0xff, 0xff, 0x0c, 0x00, 0x00, 0x00,
  0x01, 0x00, 0x00, 0x00, 0x04, 0x00, 0x00, 0x00, 0x08, 0x00, 0x00, 0x00,
  0x16, 0x00, 0x00, 0x00, 0xa0, 0x06, 0x00, 0x00, 0x3c, 0x06, 0x00, 0x00,
  0xd4, 0x05, 0x00, 0x00, 0x78, 0x05, 0x00, 0x00, 0x24, 0x05, 0x00, 0x00,
  0xe0, 0x04, 0x00, 0x00, 0x8c, 0x04, 0x00, 0x00, 0x40, 0x04, 0x00, 0x00,
  0xec, 0x03, 0x00, 0x00, 0xa8, 0x03, 0x00, 0x00, 0x54, 0x03, 0x00, 0x00,
  0x08, 0x03, 0x00, 0x00, 0xb4, 0x02, 0x00, 0x00, 0x70, 0x02, 0x00, 0x00,
  0x1c, 0x02, 0x00, 0x00, 0xd0, 0x01, 0x00, 0x00, 0x7c, 0x01, 0x00, 0x00,
  0x38, 0x01, 0x00, 0x00, 0xe4, 0x00, 0x00, 0x00, 0x98, 0x00, 0x00, 0x00,
  0x48, 0x00, 0x00, 0x00, 0x04, 0x00, 0x00, 0x00, 0xcc, 0xf9, 0xff, 0xff,
  0x00, 0x00, 0x00, 0x08, 0x01, 0x00, 0x00, 0x00, 0x10, 0x00, 0x00, 0x00,
  0x1c, 0x00, 0x00, 0x00, 0x28, 0x00, 0x00, 0x00, 0x1c, 0x00, 0x00, 0x00,
  0x03, 0x00, 0x00, 0x00, 0x2b, 0x00, 0x00, 0x00, 0x1a, 0x00, 0x00, 0x00,
  0x19, 0x00, 0x00, 0x00, 0x01, 0x00, 0x00, 0x00, 0x18, 0x00, 0x00, 0x00,
  0x00, 0x00, 0x00, 0x00, 0x04, 0x00, 0x04, 0x00, 0x04, 0x00, 0x00, 0x00,
  0x0c, 0xfa, 0xff, 0xff, 0x00, 0x00, 0x00, 0x11, 0x03, 0x00, 0x00, 0x00,
  0x10, 0x00, 0x00, 0x00, 0x18, 0x00, 0x00, 0x00, 0x20, 0x00, 0x00, 0x00,
  0x18, 0x00, 0x00, 0x00, 0x02, 0x00, 0x00, 0x00, 0x2a, 0x00, 0x00, 0x00,
  0x2c, 0x00, 0x00, 0x00, 0x01, 0x00, 0x00, 0x00, 0x2b, 0x00, 0x00, 0x00,
  0x00, 0x00, 0x00, 0x00, 0xf6, 0xf9, 0xff, 0xff, 0x04, 0x00, 0x00, 0x00,
  0x03, 0x00, 0x00, 0x00, 0x01, 0x00, 0x00, 0x00, 0x04, 0x00, 0x00, 0x00,
  0x08, 0x00, 0x00, 0x00, 0x58, 0xfa, 0xff, 0xff, 0x00, 0x00, 0x00, 0x05,
  0x02, 0x00, 0x00, 0x00, 0x10, 0x00, 0x00, 0x00, 0x14, 0x00, 0x00, 0x00,
  0x1c, 0x00, 0x00, 0x00, 0x14, 0x00, 0x00, 0x00, 0x01, 0x00, 0x00, 0x00,
  0x28, 0x00, 0x00, 0x00, 0x01, 0x00, 0x00, 0x00, 0x2a, 0x00, 0x00, 0x00,
  0x00, 0x00, 0x00, 0x00, 0x5e, 0xfb, 0xff, 0xff, 0x00, 0x00, 0x00, 0x01,
  0x01, 0x00, 0x00, 0x00, 0x02, 0x00, 0x00, 0x00, 0x01, 0x00, 0x00, 0x00,
  0x02, 0x00, 0x00, 0x00, 0xa0, 0xfa, 0xff, 0xff, 0x00, 0x00, 0x00, 0x11,
  0x03, 0x00, 0x00, 0x00, 0x10, 0x00, 0x00, 0x00, 0x18, 0x00, 0x00, 0x00,
  0x20, 0x00, 0x00, 0x00, 0x18, 0x00, 0x00, 0x00, 0x02, 0x00, 0x00, 0x00,
  0x16, 0x00, 0x00, 0x00, 0x29, 0x00, 0x00, 0x00, 0x01, 0x00, 0x00, 0x00,
  0x28, 0x00, 0x00, 0x00, 0x00, 0x00, 0x00, 0x00, 0x8a, 0xfa, 0xff, 0xff,
  0x04, 0x00, 0x00, 0x00, 0x04, 0x00, 0x00, 0x00, 0x01, 0x00, 0x00, 0x00,
  0x08, 0x00, 0x00, 0x00, 0x01, 0x00, 0x00, 0x00, 0x08, 0x00, 0x00, 0x00,
  0x50, 0xfb, 0xff, 0xff, 0x00, 0x00, 0x00, 0x01, 0x10, 0x00, 0x00, 0x00,
  0x1c, 0x00, 0x00, 0x00, 0x24, 0x00, 0x00, 0x00, 0x1c, 0x00, 0x00, 0x00,
  0x03, 0x00, 0x00, 0x00, 0x13, 0x00, 0x00, 0x00, 0x15, 0x00, 0x00, 0x00,
  0x17, 0x00, 0x00, 0x00, 0x01, 0x00, 0x00, 0x00, 0x16, 0x00, 0x00, 0x00,
  0x00, 0x00, 0x00, 0x00, 0x3a, 0xfb, 0xff, 0xff, 0x01, 0x00, 0x00, 0x00,
  0x01, 0x00, 0x00, 0x00, 0x30, 0xfb, 0xff, 0xff, 0x00, 0x00, 0x00, 0x11,
  0x03, 0x00, 0x00, 0x00, 0x10, 0x00, 0x00, 0x00, 0x18, 0x00, 0x00, 0x00,
  0x20, 0x00, 0x00, 0x00, 0x18, 0x00, 0x00, 0x00, 0x02, 0x00, 0x00, 0x00,
  0x27, 0x00, 0x00, 0x00, 0x14, 0x00, 0x00, 0x00, 0x01, 0x00, 0x00, 0x00,
  0x13, 0x00, 0x00, 0x00, 0x00, 0x00, 0x00, 0x00, 0x1a, 0xfb, 0xff, 0xff,
  0x04, 0x00, 0x00, 0x00, 0x04, 0x00, 0x00, 0x00, 0x01, 0x00, 0x00, 0x00,
  0x01, 0x00, 0x00, 0x00, 0x08, 0x00, 0x00, 0x00, 0x20, 0x00, 0x00, 0x00,
  0x80, 0xfb, 0xff, 0xff, 0x00, 0x00, 0x00, 0x05, 0x02, 0x00, 0x00, 0x00,
  0x10, 0x00, 0x00, 0x00, 0x14, 0x00, 0x00, 0x00, 0x1c, 0x00, 0x00, 0x00,
  0x14, 0x00, 0x00, 0x00, 0x01, 0x00, 0x00, 0x00, 0x25, 0x00, 0x00, 0x00,
  0x01, 0x00, 0x00, 0x00, 0x27, 0x00, 0x00, 0x00, 0x00, 0x00, 0x00, 0x00,
  0x86, 0xfc, 0xff, 0xff, 0x00, 0x00, 0x00, 0x01, 0x01, 0x00, 0x00, 0x00,
  0x02, 0x00, 0x00, 0x00, 0x01, 0x00, 0x00, 0x00, 0x02, 0x00, 0x00, 0x00,
  0xc8, 0xfb, 0xff, 0xff, 0x00, 0x00, 0x00, 0x11, 0x03, 0x00, 0x00, 0x00,
  0x10, 0x00, 0x00, 0x00, 0x18, 0x00, 0x00, 0x00, 0x20, 0x00, 0x00, 0x00,
  0x18, 0x00, 0x00, 0x00, 0x02, 0x00, 0x00, 0x00, 0x11, 0x00, 0x00, 0x00,
  0x26, 0x00, 0x00, 0x00, 0x01, 0x00, 0x00, 0x00, 0x25, 0x00, 0x00, 0x00,
  0x00, 0x00, 0x00, 0x00, 0xb2, 0xfb, 0xff, 0xff, 0x04, 0x00, 0x00, 0x00,
  0x04, 0x00, 0x00, 0x00, 0x01, 0x00, 0x00, 0x00, 0x10, 0x00, 0x00, 0x00,
  0x01, 0x00, 0x00, 0x00, 0x20, 0x00, 0x00, 0x00, 0x78, 0xfc, 0xff, 0xff,
  0x00, 0x00, 0x00, 0x01, 0x10, 0x00, 0x00, 0x00, 0x1c, 0x00, 0x00, 0x00,
  0x24, 0x00, 0x00, 0x00, 0x1c, 0x00, 0x00, 0x00, 0x03, 0x00, 0x00, 0x00,
  0x0e, 0x00, 0x00, 0x00, 0x10, 0x00, 0x00, 0x00, 0x12, 0x00, 0x00, 0x00,
  0x01, 0x00, 0x00, 0x00, 0x11, 0x00, 0x00, 0x00, 0x00, 0x00, 0x00, 0x00,
  0x62, 0xfc, 0xff, 0xff, 0x01, 0x00, 0x00, 0x00, 0x01, 0x00, 0x00, 0x00,
  0x58, 0xfc, 0xff, 0xff, 0x00, 0x00, 0x00, 0x11, 0x03, 0x00, 0x00, 0x00,
  0x10, 0x00, 0x00, 0x00, 0x18, 0x00, 0x00, 0x00, 0x20, 0x00, 0x00, 0x00,
  0x18, 0x00, 0x00, 0x00, 0x02, 0x00, 0x00, 0x00, 0x24, 0x00, 0x00, 0x00,
  0x0f, 0x00, 0x00, 0x00, 0x01, 0x00, 0x00, 0x00, 0x0e, 0x00, 0x00, 0x00,
  0x00, 0x00, 0x00, 0x00, 0x42, 0xfc, 0xff, 0xff, 0x04, 0x00, 0x00, 0x00,
  0x04, 0x00, 0x00, 0x00, 0x01, 0x00, 0x00, 0x00, 0x01, 0x00, 0x00, 0x00,
  0x10, 0x00, 0x00, 0x00, 0x10, 0x00, 0x00, 0x00, 0xa8, 0xfc, 0xff, 0xff,
  0x00, 0x00, 0x00, 0x05, 0x02, 0x00, 0x00, 0x00, 0x10, 0x00, 0x00, 0x00,
  0x14, 0x00, 0x00, 0x00, 0x1c, 0x00, 0x00, 0x00, 0x14, 0x00, 0x00, 0x00,
  0x01, 0x00, 0x00, 0x00, 0x22, 0x00, 0x00, 0x00, 0x01, 0x00, 0x00, 0x00,
  0x24, 0x00, 0x00, 0x00, 0x00, 0x00, 0x00, 0x00, 0xae, 0xfd, 0xff, 0xff,
  0x00, 0x00, 0x00, 0x01, 0x01, 0x00, 0x00, 0x00, 0x02, 0x00, 0x00, 0x00,
  0x01, 0x00, 0x00, 0x00, 0x02, 0x00, 0x00, 0x00, 0xf0, 0xfc, 0xff, 0xff,
  0x00, 0x00, 0x00, 0x11, 0x03, 0x00, 0x00, 0x00, 0x10, 0x00, 0x00, 0x00,
  0x18, 0x00, 0x00, 0x00, 0x20, 0x00, 0x00, 0x00, 0x18, 0x00, 0x00, 0x00,
  0x02, 0x00, 0x00, 0x00, 0x0c, 0x00, 0x00, 0x00, 0x23, 0x00, 0x00, 0x00,
  0x01, 0x00, 0x00, 0x00, 0x22, 0x00, 0x00, 0x00, 0x00, 0x00, 0x00, 0x00,
  0xda, 0xfc, 0xff, 0xff, 0x04, 0x00, 0x00, 0x00, 0x04, 0x00, 0x00, 0x00,
  0x01, 0x00, 0x00, 0x00, 0x20, 0x00, 0x00, 0x00, 0x01, 0x00, 0x00, 0x00,
  0x10, 0x00, 0x00, 0x00, 0xa0, 0xfd, 0xff, 0xff, 0x00, 0x00, 0x00, 0x01,
  0x10, 0x00, 0x00, 0x00, 0x1c, 0x00, 0x00, 0x00, 0x24, 0x00, 0x00, 0x00,
  0x1c, 0x00, 0x00, 0x00, 0x03, 0x00, 0x00, 0x00, 0x09, 0x00, 0x00, 0x00,
  0x0b, 0x00, 0x00, 0x00, 0x0d, 0x00, 0x00, 0x00, 0x01, 0x00, 0x00, 0x00,
  0x0c, 0x00, 0x00, 0x00, 0x00, 0x00, 0x00, 0x00, 0x8a, 0xfd, 0xff, 0xff,
  0x01, 0x00, 0x00, 0x00, 0x01, 0x00, 0x00, 0x00, 0x80, 0xfd, 0xff, 0xff,
  0x00, 0x00, 0x00, 0x11, 0x03, 0x00, 0x00, 0x00, 0x10, 0x00, 0x00, 0x00,
  0x18, 0x00, 0x00, 0x00, 0x20, 0x00, 0x00, 0x00, 0x18, 0x00, 0x00, 0x00,
  0x02, 0x00, 0x00, 0x00, 0x21, 0x00, 0x00, 0x00, 0x0a, 0x00, 0x00, 0x00,
  0x01, 0x00, 0x00, 0x00, 0x09, 0x00, 0x00, 0x00, 0x00, 0x00, 0x00, 0x00,
  0x6a, 0xfd, 0xff, 0xff, 0x04, 0x00, 0x00, 0x00, 0x04, 0x00, 0x00, 0x00,
  0x01, 0x00, 0x00, 0x00, 0x01, 0x00, 0x00, 0x00, 0x20, 0x00, 0x00, 0x00,
  0x08, 0x00, 0x00, 0x00, 0xd0, 0xfd, 0xff, 0xff, 0x00, 0x00, 0x00, 0x05,
  0x02, 0x00, 0x00, 0x00, 0x10, 0x00, 0x00, 0x00, 0x14, 0x00, 0x00, 0x00,
  0x1c, 0x00, 0x00, 0x00, 0x14, 0x00, 0x00, 0x00, 0x01, 0x00, 0x00, 0x00,
  0x1f, 0x00, 0x00, 0x00, 0x01, 0x00, 0x00, 0x00, 0x21, 0x00, 0x00, 0x00,
  0x00, 0x00, 0x00, 0x00, 0xd6, 0xfe, 0xff, 0xff, 0x00, 0x00, 0x00, 0x01,
  0x01, 0x00, 0x00, 0x00, 0x02, 0x00, 0x00, 0x00, 0x01, 0x00, 0x00, 0x00,
  0x02, 0x00, 0x00, 0x00, 0x18, 0xfe, 0xff, 0xff, 0x00, 0x00, 0x00, 0x11,
  0x03, 0x00, 0x00, 0x00, 0x10, 0x00, 0x00, 0x00, 0x18, 0x00, 0x00, 0x00,
  0x20, 0x00, 0x00, 0x00, 0x18, 0x00, 0x00, 0x00, 0x02, 0x00, 0x00, 0x00,
  0x07, 0x00, 0x00, 0x00, 0x20, 0x00, 0x00, 0x00, 0x01, 0x00, 0x00, 0x00,
  0x1f, 0x00, 0x00, 0x00, 0x00, 0x00, 0x00, 0x00, 0x02, 0xfe, 0xff, 0xff,
  0x04, 0x00, 0x00, 0x00, 0x04, 0x00, 0x00, 0x00, 0x01, 0x00, 0x00, 0x00,
  0x40, 0x00, 0x00, 0x00, 0x01, 0x00, 0x00, 0x00, 0x08, 0x00, 0x00, 0x00,
  0xc8, 0xfe, 0xff, 0xff, 0x00, 0x00, 0x00, 0x01, 0x10, 0x00, 0x00, 0x00,
  0x1c, 0x00, 0x00, 0x00, 0x24, 0x00, 0x00, 0x00, 0x1c, 0x00, 0x00, 0x00,
  0x03, 0x00, 0x00, 0x00, 0x04, 0x00, 0x00, 0x00, 0x06, 0x00, 0x00, 0x00,
  0x08, 0x00, 0x00, 0x00, 0x01, 0x00, 0x00, 0x00, 0x07, 0x00, 0x00, 0x00,
  0x00, 0x00, 0x00, 0x00, 0xb2, 0xfe, 0xff, 0xff, 0x01, 0x00, 0x00, 0x00,
  0x01, 0x00, 0x00, 0x00, 0xa8, 0xfe, 0xff, 0xff, 0x00, 0x00, 0x00, 0x11,
  0x03, 0x00, 0x00, 0x00, 0x10, 0x00, 0x00, 0x00, 0x18, 0x00, 0x00, 0x00,
  0x20, 0x00, 0x00, 0x00, 0x18, 0x00, 0x00, 0x00, 0x02, 0x00, 0x00, 0x00,
  0x1e, 0x00, 0x00, 0x00, 0x05, 0x00, 0x00, 0x00, 0x01, 0x00, 0x00, 0x00,
  0x04, 0x00, 0x00, 0x00, 0x00, 0x00, 0x00, 0x00, 0x92, 0xfe, 0xff, 0xff,
  0x04, 0x00, 0x00, 0x00, 0x04, 0x00, 0x00, 0x00, 0x01, 0x00, 0x00, 0x00,
  0x01, 0x00, 0x00, 0x00, 0x40, 0x00, 0x00, 0x00, 0x04, 0x00, 0x00, 0x00,
  0xf8, 0xfe, 0xff, 0xff, 0x00, 0x00, 0x00, 0x05, 0x02, 0x00, 0x00, 0x00,
  0x10, 0x00, 0x00, 0x00, 0x14, 0x00, 0x00, 0x00, 0x2c, 0x00, 0x00, 0x00,
  0x14, 0x00, 0x00, 0x00, 0x01, 0x00, 0x00, 0x00, 0x1c, 0x00, 0x00, 0x00,
  0x01, 0x00, 0x00, 0x00, 0x1e, 0x00, 0x00, 0x00, 0x00, 0x00, 0x00, 0x00,
  0x00, 0x00, 0x0e, 0x00, 0x18, 0x00, 0x07, 0x00, 0x08, 0x00, 0x0c, 0x00,
  0x10, 0x00, 0x14, 0x00, 0x0e, 0x00, 0x00, 0x00, 0x00, 0x00, 0x00, 0x01,
  0x01, 0x00, 0x00, 0x00, 0x02, 0x00, 0x00, 0x00, 0x01, 0x00, 0x00, 0x00,
  0x02, 0x00, 0x00, 0x00, 0x50, 0xff, 0xff, 0xff, 0x00, 0x00, 0x00, 0x11,
  0x03, 0x00, 0x00, 0x00, 0x10, 0x00, 0x00, 0x00, 0x18, 0x00, 0x00, 0x00,
  0x20, 0x00, 0x00, 0x00, 0x18, 0x00, 0x00, 0x00, 0x02, 0x00, 0x00, 0x00,
  0x2d, 0x00, 0x00, 0x00, 0x1d, 0x00, 0x00, 0x00, 0x01, 0x00, 0x00, 0x00,
  0x1c, 0x00, 0x00, 0x00, 0x00, 0x00, 0x00, 0x00, 0x3a, 0xff, 0xff, 0xff,
  0x04, 0x00, 0x00, 0x00, 0x04, 0x00, 0x00, 0x00, 0x01, 0x00, 0x00, 0x00,
  0x80, 0x00, 0x00, 0x00, 0x01, 0x00, 0x00, 0x00, 0x04, 0x00, 0x00, 0x00,
  0x14, 0x00, 0x18, 0x00, 0x00, 0x00, 0x08, 0x00, 0x0c, 0x00, 0x07, 0x00,
  0x10, 0x00, 0x00, 0x00, 0x00, 0x00, 0x14, 0x00, 0x14, 0x00, 0x00, 0x00,
  0x00, 0x00, 0x00, 0x01, 0x10, 0x00, 0x00, 0x00, 0x1c, 0x00, 0x00, 0x00,
  0x30, 0x00, 0x00, 0x00, 0x1c, 0x00, 0x00, 0x00, 0x03, 0x00, 0x00, 0x00,
  0x00, 0x00, 0x00, 0x00, 0x02, 0x00, 0x00, 0x00, 0x03, 0x00, 0x00, 0x00,
  0x01, 0x00, 0x00, 0x00, 0x2d, 0x00, 0x00, 0x00, 0x00, 0x00, 0x00, 0x00,
  0x00, 0x00, 0x0a, 0x00, 0x0c, 0x00, 0x00, 0x00, 0x04, 0x00, 0x08, 0x00,
  0x0a, 0x00, 0x00, 0x00, 0x01, 0x00, 0x00, 0x00, 0x01, 0x00, 0x00, 0x00,
  0x14, 0x00, 0x1c, 0x00, 0x08, 0x00, 0x0c, 0x00, 0x10, 0x00, 0x07, 0x00,
  0x14, 0x00, 0x00, 0x00, 0x00, 0x00, 0x18, 0x00, 0x14, 0x00, 0x00, 0x00,
  0x00, 0x00, 0x00, 0x11, 0x03, 0x00, 0x00, 0x00, 0x10, 0x00, 0x00, 0x00,
  0x18, 0x00, 0x00, 0x00, 0x28, 0x00, 0x00, 0x00, 0x18, 0x00, 0x00, 0x00,
  0x02, 0x00, 0x00, 0x00, 0x1b, 0x00, 0x00, 0x00, 0x01, 0x00, 0x00, 0x00,
  0x01, 0x00, 0x00, 0x00, 0x00, 0x00, 0x00, 0x00, 0x00, 0x00, 0x00, 0x00,
  0x00, 0x00, 0x06, 0x00, 0x08, 0x00, 0x04, 0x00, 0x06, 0x00, 0x00, 0x00,
  0x04, 0x00, 0x00, 0x00, 0x04, 0x00, 0x00, 0x00, 0x01, 0x00, 0x00, 0x00,
  0x01, 0x00, 0x00, 0x00, 0x80, 0x00, 0x00, 0x00, 0x09, 0x00, 0x00, 0x00,
  0x04, 0x00, 0x00, 0x00, 0x30, 0x00, 0x00, 0x00, 0x0c, 0x00, 0x00, 0x00,
  0x18, 0x00, 0x00, 0x00, 0x0c, 0x00, 0x00, 0x00, 0x56, 0xff, 0xff, 0xff,
  0x00, 0x00, 0x00, 0x09, 0x5e, 0xff, 0xff, 0xff, 0x00, 0x00, 0x00, 0x16,
  0x66, 0xff, 0xff, 0xff, 0x00, 0x00, 0x00, 0x11, 0x6e, 0xff, 0xff, 0xff,
  0x00, 0x00, 0x00, 0x16, 0x76, 0xff, 0xff, 0xff, 0x00, 0x00, 0x00, 0x03,
  0x7e, 0xff, 0xff, 0xff, 0x00, 0x00, 0x00, 0x16, 0x86, 0xff, 0xff, 0xff,
  0x00, 0x00, 0x00, 0x11, 0x8e, 0xff, 0xff, 0xff, 0x00, 0x00, 0x00, 0x16,
  0x96, 0xff, 0xff, 0xff, 0x00, 0x00, 0x00, 0x03, 0x9e, 0xff, 0xff, 0xff,
  0x00, 0x00, 0x00, 0x16, 0xa6, 0xff, 0xff, 0xff, 0x00, 0x00, 0x00, 0x11,
  0xae, 0xff, 0xff, 0xff, 0x00, 0x00, 0x00, 0x16, 0xb6, 0xff, 0xff, 0xff,
  0x00, 0x00, 0x00, 0x03, 0xbe, 0xff, 0xff, 0xff, 0x00, 0x00, 0x00, 0x16,
  0xc6, 0xff, 0xff, 0xff, 0x00, 0x00, 0x00, 0x11, 0xce, 0xff, 0xff, 0xff,
  0x00, 0x00, 0x00, 0x16, 0xd6, 0xff, 0xff, 0xff, 0x00, 0x00, 0x00, 0x03,
  0xde, 0xff, 0xff, 0xff, 0x00, 0x00, 0x00, 0x16, 0xe6, 0xff, 0xff, 0xff,
  0x00, 0x00, 0x00, 0x11, 0xfa, 0xff, 0xff, 0xff, 0x00, 0x16, 0x06, 0x00,
  0x06, 0x00, 0x05, 0x00, 0x06, 0x00, 0x00, 0x00, 0x00, 0x03, 0x06, 0x00,
  0x08, 0x00, 0x07, 0x00, 0x06, 0x00, 0x00, 0x00, 0x00, 0x00, 0x00, 0x16
};
const unsigned int multi_motions_model_tflite_len = 11736;
