#include "model.h"


// Name of model tflite flatbuffer.
const unsigned char model_tflite_name[] = {"model"};

// Model data tflite flatbuffer.
const unsigned char model_tflite[] = {
  0x20, 0x00, 0x00, 0x00, 0x54, 0x46, 0x4c, 0x33, 0x00, 0x00, 0x00, 0x00,
  0x00, 0x00, 0x12, 0x00, 0x1c, 0x00, 0x04, 0x00, 0x08, 0x00, 0x0c, 0x00,
  0x10, 0x00, 0x14, 0x00, 0x00, 0x00, 0x18, 0x00, 0x12, 0x00, 0x00, 0x00,
  0x03, 0x00, 0x00, 0x00, 0x64, 0x2f, 0x00, 0x00, 0x10, 0x00, 0x00, 0x00,
  0x1c, 0x00, 0x00, 0x00, 0x2c, 0x00, 0x00, 0x00, 0x0c, 0x00, 0x00, 0x00,
  0x01, 0x00, 0x00, 0x00, 0x9c, 0x01, 0x00, 0x00, 0x01, 0x00, 0x00, 0x00,
  0x70, 0x01, 0x00, 0x00, 0x0f, 0x00, 0x00, 0x00, 0x54, 0x4f, 0x43, 0x4f,
  0x20, 0x43, 0x6f, 0x6e, 0x76, 0x65, 0x72, 0x74, 0x65, 0x64, 0x2e, 0x00,
  0x20, 0x00, 0x00, 0x00, 0x3c, 0x01, 0x00, 0x00, 0x30, 0x01, 0x00, 0x00,
  0x24, 0x01, 0x00, 0x00, 0x18, 0x01, 0x00, 0x00, 0x0c, 0x01, 0x00, 0x00,
  0x00, 0x01, 0x00, 0x00, 0xf4, 0x00, 0x00, 0x00, 0xe8, 0x00, 0x00, 0x00,
  0xdc, 0x00, 0x00, 0x00, 0xd0, 0x00, 0x00, 0x00, 0xc4, 0x00, 0x00, 0x00,
  0xbc, 0x00, 0x00, 0x00, 0xb0, 0x00, 0x00, 0x00, 0xa8, 0x00, 0x00, 0x00,
  0xa0, 0x00, 0x00, 0x00, 0x98, 0x00, 0x00, 0x00, 0x90, 0x00, 0x00, 0x00,
  0x88, 0x00, 0x00, 0x00, 0x7c, 0x00, 0x00, 0x00, 0x70, 0x00, 0x00, 0x00,
  0x68, 0x00, 0x00, 0x00, 0x60, 0x00, 0x00, 0x00, 0x58, 0x00, 0x00, 0x00,
  0x50, 0x00, 0x00, 0x00, 0x48, 0x00, 0x00, 0x00, 0x40, 0x00, 0x00, 0x00,
  0x38, 0x00, 0x00, 0x00, 0x2c, 0x00, 0x00, 0x00, 0x20, 0x00, 0x00, 0x00,
  0x18, 0x00, 0x00, 0x00, 0x10, 0x00, 0x00, 0x00, 0x04, 0x00, 0x00, 0x00,
  0x7a, 0xd1, 0xff, 0xff, 0xbc, 0x00, 0x00, 0x00, 0x78, 0xd5, 0xff, 0xff,
  0x7c, 0xd5, 0xff, 0xff, 0x8a, 0xd1, 0xff, 0xff, 0x18, 0x03, 0x00, 0x00,
  0x92, 0xd1, 0xff, 0xff, 0x64, 0x09, 0x00, 0x00, 0x90, 0xd5, 0xff, 0xff,
  0x94, 0xd5, 0xff, 0xff, 0x98, 0xd5, 0xff, 0xff, 0x9c, 0xd5, 0xff, 0xff,
  0xa0, 0xd5, 0xff, 0xff, 0xa4, 0xd5, 0xff, 0xff, 0xa8, 0xd5, 0xff, 0xff,
  0xb6, 0xd1, 0xff, 0xff, 0x30, 0x0d, 0x00, 0x00, 0xbe, 0xd1, 0xff, 0xff,
  0xbc, 0x0d, 0x00, 0x00, 0xbc, 0xd5, 0xff, 0xff, 0xc0, 0xd5, 0xff, 0xff,
  0xc4, 0xd5, 0xff, 0xff, 0xc8, 0xd5, 0xff, 0xff, 0xcc, 0xd5, 0xff, 0xff,
  0xda, 0xd1, 0xff, 0xff, 0x7c, 0x16, 0x00, 0x00, 0xd8, 0xd5, 0xff, 0xff,
  0xe6, 0xd1, 0xff, 0xff, 0xf8, 0x17, 0x00, 0x00, 0xee, 0xd1, 0xff, 0xff,
  0x6c, 0x19, 0x00, 0x00, 0xf6, 0xd1, 0xff, 0xff, 0x7c, 0x1a, 0x00, 0x00,
  0xfe, 0xd1, 0xff, 0xff, 0xd4, 0x26, 0x00, 0x00, 0x06, 0xd2, 0xff, 0xff,
  0x7c, 0x27, 0x00, 0x00, 0x0e, 0xd2, 0xff, 0xff, 0xdc, 0x27, 0x00, 0x00,
  0x16, 0xd2, 0xff, 0xff, 0x38, 0x28, 0x00, 0x00, 0x1e, 0xd2, 0xff, 0xff,
  0x94, 0x28, 0x00, 0x00, 0x26, 0xd2, 0xff, 0xff, 0xf0, 0x28, 0x00, 0x00,
  0x2e, 0xd2, 0xff, 0xff, 0x54, 0x29, 0x00, 0x00, 0x2c, 0xd6, 0xff, 0xff,
  0x05, 0x00, 0x00, 0x00, 0x31, 0x2e, 0x35, 0x2e, 0x30, 0x00, 0x00, 0x00,
  0x08, 0x00, 0x0c, 0x00, 0x04, 0x00, 0x08, 0x00, 0x08, 0x00, 0x00, 0x00,
  0x08, 0x00, 0x00, 0x00, 0x1f, 0x00, 0x00, 0x00, 0x13, 0x00, 0x00, 0x00,
  0x6d, 0x69, 0x6e, 0x5f, 0x72, 0x75, 0x6e, 0x74, 0x69, 0x6d, 0x65, 0x5f,
  0x76, 0x65, 0x72, 0x73, 0x69, 0x6f, 0x6e, 0x00, 0x40, 0xe6, 0xff, 0xff,
  0x20, 0x00, 0x00, 0x00, 0x14, 0x00, 0x00, 0x00, 0x08, 0x00, 0x00, 0x00,
  0x14, 0x29, 0x00, 0x00, 0x01, 0x00, 0x00, 0x00, 0x1b, 0x00, 0x00, 0x00,
  0x01, 0x00, 0x00, 0x00, 0x1a, 0x00, 0x00, 0x00, 0x1e, 0x00, 0x00, 0x00,
  0xe8, 0x12, 0x00, 0x00, 0x0c, 0x0b, 0x00, 0x00, 0xfc, 0x0b, 0x00, 0x00,
  0xb4, 0x16, 0x00, 0x00, 0x5c, 0x18, 0x00, 0x00, 0x64, 0x00, 0x00, 0x00,
  0x50, 0x27, 0x00, 0x00, 0x2c, 0x19, 0x00, 0x00, 0x3c, 0x13, 0x00, 0x00,
  0x3c, 0x15, 0x00, 0x00, 0xd0, 0x08, 0x00, 0x00, 0xe4, 0x07, 0x00, 0x00,
  0x54, 0x01, 0x00, 0x00, 0x28, 0x14, 0x00, 0x00, 0xa8, 0x25, 0x00, 0x00,
  0x44, 0x09, 0x00, 0x00, 0xc8, 0x26, 0x00, 0x00, 0x48, 0x0a, 0x00, 0x00,
  0xc0, 0x09, 0x00, 0x00, 0x80, 0x27, 0x00, 0x00, 0x8c, 0x13, 0x00, 0x00,
  0xac, 0x00, 0x00, 0x00, 0xd8, 0x27, 0x00, 0x00, 0x18, 0x08, 0x00, 0x00,
  0x80, 0x14, 0x00, 0x00, 0x40, 0x28, 0x00, 0x00, 0x2c, 0x0b, 0x00, 0x00,
  0xd8, 0x15, 0x00, 0x00, 0x10, 0x26, 0x00, 0x00, 0xf0, 0x0b, 0x00, 0x00,
  0xe2, 0xd7, 0xff, 0xff, 0x00, 0x00, 0x00, 0x03, 0x10, 0x00, 0x00, 0x00,
  0x1e, 0x00, 0x00, 0x00, 0x1c, 0x00, 0x00, 0x00, 0x38, 0x00, 0x00, 0x00,
  0x04, 0x00, 0x00, 0x00, 0x01, 0x00, 0x00, 0x00, 0x01, 0x00, 0x00, 0x00,
  0x40, 0x00, 0x00, 0x00, 0x20, 0x00, 0x00, 0x00, 0x1a, 0x00, 0x00, 0x00,
  0x63, 0x6f, 0x6e, 0x76, 0x31, 0x64, 0x5f, 0x31, 0x2f, 0x63, 0x6f, 0x6e,
  0x76, 0x31, 0x64, 0x2f, 0x45, 0x78, 0x70, 0x61, 0x6e, 0x64, 0x44, 0x69,
  0x6d, 0x73, 0x00, 0x00, 0x2c, 0xe7, 0xff, 0xff, 0x30, 0x00, 0x00, 0x00,
  0x24, 0x00, 0x00, 0x00, 0x18, 0x00, 0x00, 0x00, 0x04, 0x00, 0x00, 0x00,
  0x01, 0x00, 0x00, 0x00, 0x00, 0x00, 0x00, 0x00, 0x00, 0x00, 0x00, 0x00,
  0x00, 0x00, 0x00, 0x00, 0x01, 0x00, 0x00, 0x00, 0x00, 0x00, 0x80, 0x3f,
  0x01, 0x00, 0x00, 0x00, 0x00, 0x00, 0x7f, 0x43, 0x01, 0x00, 0x00, 0x00,
  0x00, 0x00, 0x00, 0x00, 0x6a, 0xd8, 0xff, 0xff, 0x00, 0x00, 0x00, 0x03,
  0x10, 0x00, 0x00, 0x00, 0x1d, 0x00, 0x00, 0x00, 0x1c, 0x00, 0x00, 0x00,
  0x38, 0x00, 0x00, 0x00, 0x04, 0x00, 0x00, 0x00, 0x01, 0x00, 0x00, 0x00,
  0x20, 0x00, 0x00, 0x00, 0x01, 0x00, 0x00, 0x00, 0x10, 0x00, 0x00, 0x00,
  0x1a, 0x00, 0x00, 0x00, 0x6d, 0x61, 0x78, 0x5f, 0x70, 0x6f, 0x6f, 0x6c,
  0x69, 0x6e, 0x67, 0x31, 0x64, 0x5f, 0x32, 0x2f, 0x45, 0x78, 0x70, 0x61,
  0x6e, 0x64, 0x44, 0x69, 0x6d, 0x73, 0x00, 0x00, 0xb4, 0xe7, 0xff, 0xff,
  0x2c, 0x00, 0x00, 0x00, 0x20, 0x00, 0x00, 0x00, 0x14, 0x00, 0x00, 0x00,
  0x04, 0x00, 0x00, 0x00, 0x01, 0x00, 0x00, 0x00, 0x00, 0x00, 0x00, 0x00,
  0x00, 0x00, 0x00, 0x00, 0x01, 0x00, 0x00, 0x00, 0x00, 0x00, 0x80, 0x3f,
  0x01, 0x00, 0x00, 0x00, 0x00, 0x00, 0x7f, 0x43, 0x01, 0x00, 0x00, 0x00,
  0x00, 0x00, 0x00, 0x00, 0xee, 0xd8, 0xff, 0xff, 0x00, 0x00, 0x00, 0x03,
  0x10, 0x00, 0x00, 0x00, 0x1c, 0x00, 0x00, 0x00, 0x1c, 0x00, 0x00, 0x00,
  0x3c, 0x00, 0x00, 0x00, 0x04, 0x00, 0x00, 0x00, 0x10, 0x00, 0x00, 0x00,
  0x01, 0x00, 0x00, 0x00, 0x03, 0x00, 0x00, 0x00, 0x20, 0x00, 0x00, 0x00,
  0x1c, 0x00, 0x00, 0x00, 0x63, 0x6f, 0x6e, 0x76, 0x31, 0x64, 0x5f, 0x32,
  0x2f, 0x63, 0x6f, 0x6e, 0x76, 0x31, 0x64, 0x2f, 0x45, 0x78, 0x70, 0x61,
  0x6e, 0x64, 0x44, 0x69, 0x6d, 0x73, 0x5f, 0x31, 0x00, 0x00, 0x00, 0x00,
  0x3c, 0xe8, 0xff, 0xff, 0x2c, 0x00, 0x00, 0x00, 0x20, 0x00, 0x00, 0x00,
  0x14, 0x00, 0x00, 0x00, 0x04, 0x00, 0x00, 0x00, 0x01, 0x00, 0x00, 0x00,
  0x94, 0x00, 0x00, 0x00, 0x00, 0x00, 0x00, 0x00, 0x01, 0x00, 0x00, 0x00,
  0x7d, 0x16, 0x96, 0x3b, 0x01, 0x00, 0x00, 0x00, 0x04, 0xb5, 0xfa, 0x3e,
  0x01, 0x00, 0x00, 0x00, 0x4c, 0xa6, 0x2d, 0xbf, 0x00, 0x06, 0x00, 0x00,
  0x8a, 0x5f, 0x5d, 0x56, 0x90, 0xa6, 0x8f, 0x8c, 0x8b, 0x56, 0x5e, 0x55,
  0xa3, 0xa4, 0x45, 0x86, 0x90, 0x60, 0x6d, 0x6c, 0x90, 0x6c, 0x69, 0x8a,
  0x88, 0x67, 0x7e, 0x98, 0xa9, 0x6a, 0x75, 0x7a, 0x89, 0x7b, 0xad, 0x72,
  0x96, 0xa3, 0x5d, 0x98, 0x86, 0x53, 0x7c, 0xa2, 0x8b, 0x6a, 0x60, 0xa8,
  0x79, 0xab, 0x9f, 0xac, 0x5a, 0x66, 0x9b, 0x7a, 0x92, 0x77, 0x7b, 0x9c,
  0x93, 0x8a, 0x6d, 0x7b, 0x85, 0x68, 0x6a, 0x62, 0x5f, 0xa6, 0x99, 0xab,
  0x4d, 0x80, 0xb7, 0x58, 0x7b, 0x4b, 0x91, 0xb2, 0x99, 0x6a, 0x99, 0x9b,
  0x99, 0x5a, 0x9a, 0xa5, 0x55, 0xa8, 0xad, 0x72, 0x98, 0xa2, 0x90, 0xa0,
  0x64, 0x99, 0xa4, 0x9a, 0x85, 0x5f, 0x60, 0x9c, 0x8f, 0x61, 0x71, 0x81,
  0x94, 0x87, 0x9d, 0xaa, 0xa6, 0x88, 0x8f, 0xf0, 0x72, 0xa4, 0x51, 0x86,
  0x6c, 0x89, 0x74, 0x77, 0x91, 0x8d, 0xa5, 0x7a, 0xa7, 0x9d, 0x80, 0x6f,
  0x94, 0x71, 0xc2, 0x9e, 0xa2, 0x88, 0xba, 0x8b, 0xad, 0xad, 0xb7, 0xa3,
  0x73, 0xa7, 0xc7, 0xa1, 0xba, 0x94, 0xb0, 0x8d, 0xaa, 0x84, 0x72, 0x95,
  0x61, 0x74, 0xa1, 0xb3, 0xa3, 0x8b, 0x72, 0x8e, 0xc5, 0xab, 0x62, 0xb8,
  0x4b, 0x5c, 0x87, 0x95, 0x6e, 0x9f, 0x77, 0x87, 0xb3, 0x9b, 0x88, 0x9a,
  0x82, 0x8e, 0x73, 0x8b, 0x6d, 0x9b, 0x6d, 0xa8, 0x8d, 0x70, 0xa8, 0x8c,
  0x9d, 0xa0, 0x6a, 0x54, 0xa9, 0x66, 0x7a, 0xbe, 0x9b, 0xaf, 0x8e, 0xa5,
  0x63, 0x82, 0x81, 0xb1, 0x63, 0x6e, 0x8d, 0x60, 0x75, 0x74, 0x52, 0x96,
  0xac, 0x55, 0x8a, 0x3b, 0x8b, 0x9b, 0x92, 0x92, 0x76, 0xab, 0x78, 0xa5,
  0x8b, 0x99, 0x73, 0x82, 0x55, 0xa9, 0x89, 0xbc, 0x82, 0xa0, 0x8d, 0x92,
  0xa3, 0xbf, 0x96, 0x8f, 0x72, 0x82, 0x99, 0x78, 0xb3, 0x7e, 0x63, 0x9b,
  0x80, 0x72, 0xac, 0x87, 0x75, 0xa3, 0xac, 0x96, 0x74, 0x57, 0x8f, 0x7f,
  0x66, 0x6a, 0x9b, 0x59, 0x8b, 0x9b, 0x9b, 0x9b, 0x64, 0x80, 0x1d, 0x75,
  0x9c, 0x66, 0x98, 0x7d, 0x62, 0x83, 0xa2, 0x8a, 0x60, 0x7b, 0x5c, 0xa2,
  0xac, 0x7b, 0x7b, 0x6c, 0xb1, 0x95, 0x98, 0x88, 0x80, 0x81, 0x9b, 0x97,
  0x81, 0x83, 0x79, 0x5d, 0x78, 0xa3, 0x98, 0x67, 0x9d, 0x7f, 0x48, 0x63,
  0x53, 0xb1, 0x73, 0x90, 0x9d, 0x94, 0xa6, 0x5c, 0x6d, 0x91, 0x8b, 0x9d,
  0x71, 0x88, 0x7d, 0x5b, 0x5f, 0x70, 0xaf, 0x70, 0x96, 0x5d, 0x5e, 0xaf,
  0x7b, 0xa6, 0x49, 0xa4, 0x58, 0x43, 0x73, 0x8a, 0xc3, 0xb2, 0x68, 0x74,
  0x6b, 0x77, 0x80, 0x99, 0x8d, 0xa9, 0x6e, 0x6d, 0x66, 0xa2, 0x73, 0x95,
  0x9a, 0x71, 0x6d, 0x77, 0x9b, 0x62, 0x5f, 0xb3, 0xa9, 0x65, 0x8d, 0x8c,
  0x8c, 0x91, 0xa8, 0x96, 0x5d, 0x72, 0x8e, 0x8c, 0x95, 0xa9, 0x81, 0x61,
  0xca, 0xaa, 0x89, 0xaf, 0xad, 0x90, 0xaa, 0x6f, 0x7c, 0x58, 0xb5, 0x2b,
  0x9b, 0xcd, 0x6d, 0x79, 0x9c, 0x92, 0x5a, 0x77, 0x51, 0xe4, 0x92, 0x74,
  0x3e, 0xa2, 0xcc, 0x95, 0xae, 0x6d, 0x9b, 0x95, 0x9c, 0x86, 0x80, 0x97,
  0xac, 0x83, 0x95, 0x89, 0xb2, 0xaf, 0x81, 0xaf, 0xb8, 0x2f, 0xb3, 0xac,
  0x75, 0xa5, 0x73, 0x5c, 0xca, 0x96, 0x87, 0x9e, 0x95, 0xae, 0xa0, 0xc5,
  0x7a, 0x88, 0x96, 0x8b, 0x70, 0x5f, 0x94, 0x87, 0xae, 0xad, 0x4c, 0xc4,
  0x72, 0x83, 0x7c, 0xa1, 0x97, 0x23, 0x8f, 0xb4, 0x65, 0x88, 0x0c, 0x8d,
  0x88, 0x23, 0x7d, 0xa2, 0x5d, 0x97, 0x90, 0x88, 0x69, 0xc0, 0x9e, 0x62,
  0x4d, 0x34, 0xaa, 0xb4, 0x68, 0x8b, 0x83, 0xa5, 0x7d, 0x8d, 0x88, 0xcb,
  0x3c, 0x85, 0x64, 0xc3, 0xa2, 0x78, 0x82, 0xab, 0x85, 0x62, 0x71, 0x69,
  0x4d, 0x91, 0xc1, 0x70, 0xa5, 0x8d, 0xaf, 0x8e, 0x96, 0x46, 0x7f, 0x71,
  0x83, 0x90, 0x6b, 0x93, 0x8d, 0xc9, 0xb0, 0x8e, 0x60, 0x8e, 0x6b, 0x84,
  0x8e, 0x71, 0x71, 0x65, 0x96, 0x74, 0x63, 0x77, 0x4c, 0xa8, 0xa5, 0x9d,
  0xa0, 0x79, 0x65, 0x70, 0x8a, 0x3a, 0xb3, 0x86, 0x62, 0xa5, 0x7a, 0xa2,
  0x57, 0x85, 0x9b, 0xc0, 0x87, 0x69, 0xa6, 0xb2, 0x82, 0x7b, 0xb1, 0x77,
  0xa4, 0x94, 0x78, 0x74, 0x62, 0xa6, 0x7d, 0x5b, 0xbf, 0x58, 0x9c, 0x75,
  0x47, 0x97, 0x9f, 0x50, 0xa0, 0x80, 0x74, 0x7f, 0x7a, 0xc2, 0x94, 0x73,
  0x84, 0x6d, 0x99, 0x66, 0xa8, 0x79, 0x90, 0x9a, 0x7e, 0x8d, 0x6f, 0x59,
  0xfb, 0xa8, 0x8f, 0x6a, 0x9f, 0x91, 0x68, 0xa7, 0x7a, 0xac, 0x5e, 0xa6,
  0xa7, 0x9e, 0xa3, 0xa1, 0x67, 0x76, 0x89, 0x7c, 0x85, 0x64, 0x6a, 0xae,
  0x9e, 0x68, 0x98, 0x88, 0x6c, 0x49, 0x87, 0xa2, 0x98, 0xb2, 0x65, 0x9d,
  0xad, 0x9f, 0xb9, 0xa4, 0x91, 0x5b, 0x74, 0x5d, 0x86, 0xa9, 0xa6, 0x70,
  0x8d, 0x74, 0x8f, 0x5e, 0xb9, 0x76, 0x9f, 0x9a, 0xa0, 0xba, 0x92, 0xb2,
  0x9b, 0x6f, 0x76, 0x82, 0x8f, 0xcd, 0x89, 0xd4, 0x83, 0xb6, 0xbc, 0x7b,
  0x90, 0x9e, 0x6d, 0xa3, 0xb1, 0x6a, 0x88, 0x91, 0xb4, 0x7c, 0x79, 0x47,
  0x87, 0x43, 0x67, 0x82, 0x98, 0x61, 0x76, 0x82, 0x5b, 0x40, 0x7d, 0x6f,
  0x58, 0xae, 0x94, 0x6f, 0xa4, 0xae, 0x83, 0x98, 0x83, 0x7a, 0xad, 0x5b,
  0x67, 0x92, 0xa6, 0x90, 0x7b, 0x7a, 0xa0, 0x86, 0xb7, 0x8b, 0x5a, 0xc0,
  0xb3, 0x8e, 0x9e, 0x70, 0x73, 0x50, 0x6f, 0x77, 0x83, 0xc5, 0xa5, 0xea,
  0x5c, 0x96, 0x9f, 0xb6, 0xbe, 0xa8, 0xac, 0x59, 0x89, 0x73, 0x9f, 0x93,
  0x6c, 0x9a, 0x94, 0x65, 0x8e, 0x79, 0xa9, 0x82, 0xba, 0xa6, 0x7e, 0x77,
  0x98, 0x87, 0x51, 0x89, 0x9b, 0xa2, 0x83, 0x77, 0xa8, 0x78, 0xa2, 0x8a,
  0x9f, 0x5d, 0x71, 0x86, 0xad, 0x79, 0xa8, 0x62, 0x67, 0x77, 0xc7, 0x92,
  0x73, 0x76, 0x40, 0x82, 0xa9, 0x5a, 0xd8, 0x7e, 0x9a, 0xc8, 0xab, 0xca,
  0xc6, 0xb9, 0x85, 0x4c, 0xa8, 0x99, 0xbe, 0x8e, 0x6d, 0x73, 0x8e, 0x1e,
  0x9c, 0x7c, 0x80, 0xa7, 0x5c, 0x97, 0x6d, 0x43, 0x66, 0xbb, 0x6d, 0xa6,
  0xab, 0x5b, 0x5f, 0xcf, 0x62, 0x4f, 0xb3, 0x6d, 0x96, 0x8c, 0x5b, 0x9e,
  0x85, 0x71, 0x7f, 0x98, 0xaf, 0x78, 0xf6, 0xb5, 0x4a, 0x82, 0x95, 0xab,
  0xe5, 0x77, 0x8c, 0xac, 0x96, 0x6a, 0x6e, 0x79, 0x82, 0x61, 0x46, 0x71,
  0x91, 0x73, 0x65, 0x8c, 0x31, 0x6f, 0xa1, 0xab, 0x98, 0x8c, 0xb8, 0xac,
  0x63, 0x5a, 0x98, 0x88, 0x6f, 0x8b, 0x61, 0x85, 0x78, 0x6e, 0x9b, 0x60,
  0x9b, 0x71, 0xa6, 0xa1, 0x92, 0x91, 0xa3, 0xa2, 0x9a, 0x5b, 0x74, 0x75,
  0xa5, 0x6f, 0x93, 0x7c, 0x65, 0x5c, 0x9f, 0x88, 0xa4, 0x93, 0x70, 0x4c,
  0xa3, 0x7d, 0x78, 0x9a, 0xa3, 0x85, 0x9a, 0x72, 0x69, 0x9f, 0x75, 0xaa,
  0xac, 0x7e, 0xa0, 0x84, 0x63, 0x68, 0x83, 0x69, 0x65, 0xb1, 0x81, 0x85,
  0xa2, 0x8b, 0xa7, 0xa9, 0x67, 0x59, 0xa1, 0x75, 0xa8, 0x8f, 0x6f, 0x63,
  0xa5, 0xa2, 0x66, 0xa7, 0x71, 0x72, 0x68, 0x90, 0x7e, 0xa0, 0x80, 0xab,
  0x9e, 0xa3, 0x8c, 0x87, 0x5b, 0x91, 0x5f, 0x95, 0x8a, 0x83, 0x8b, 0xa3,
  0xa0, 0x8a, 0x79, 0x56, 0x79, 0x6f, 0xa5, 0xad, 0x71, 0x7d, 0xa6, 0x73,
  0x6f, 0x98, 0x65, 0x7e, 0xa7, 0x9c, 0x9b, 0x8c, 0x85, 0x99, 0x75, 0xa4,
  0x5f, 0x9c, 0x92, 0x86, 0x7d, 0xa1, 0x5e, 0x96, 0x87, 0xa7, 0x80, 0x79,
  0x7d, 0x69, 0x5f, 0xa8, 0x87, 0x78, 0x65, 0x93, 0x66, 0xa3, 0x9a, 0xa4,
  0x75, 0x83, 0x75, 0xa9, 0x8e, 0x7c, 0x90, 0x6b, 0x6a, 0xa9, 0x96, 0x6d,
  0x8c, 0x81, 0x77, 0x7e, 0x92, 0x98, 0x63, 0x6c, 0x99, 0x6b, 0x8f, 0x64,
  0x8b, 0x6e, 0x87, 0x60, 0x8b, 0xa1, 0x60, 0x86, 0xab, 0xaf, 0x67, 0x90,
  0x70, 0x65, 0x4b, 0x80, 0x9e, 0xa3, 0x78, 0x97, 0x5d, 0x71, 0x86, 0x94,
  0x75, 0x4b, 0xc5, 0xa6, 0x5f, 0xaf, 0xc9, 0x9d, 0xfa, 0x86, 0x79, 0x84,
  0xad, 0xbe, 0x7d, 0xc4, 0xa6, 0x98, 0xb5, 0x7c, 0x86, 0x72, 0xd9, 0xa4,
  0x40, 0xae, 0x8a, 0x92, 0x9a, 0x7f, 0xa6, 0x8f, 0x8f, 0x9a, 0x6c, 0x6c,
  0x6f, 0xb5, 0x54, 0x78, 0x50, 0x99, 0x85, 0x54, 0xb1, 0x58, 0x7d, 0x8a,
  0x9a, 0x7e, 0x7b, 0xa4, 0x78, 0x8b, 0x77, 0x7c, 0x4e, 0x75, 0x9f, 0x83,
  0x95, 0xb8, 0x79, 0xa9, 0xca, 0xcf, 0x96, 0x78, 0x9c, 0x81, 0xa6, 0xad,
  0x5f, 0x34, 0xab, 0x7b, 0x48, 0x7b, 0x8e, 0x85, 0x91, 0x95, 0x81, 0x9b,
  0xae, 0x76, 0x69, 0x88, 0xbc, 0x9c, 0x7c, 0x00, 0xa2, 0x64, 0x8c, 0x70,
  0x90, 0x96, 0xb3, 0x7d, 0xc5, 0x66, 0x77, 0xc1, 0x40, 0xb7, 0x91, 0xb1,
  0x9c, 0x83, 0x9f, 0xa7, 0x95, 0x99, 0x8c, 0xc1, 0xb3, 0x97, 0x52, 0x85,
  0x83, 0xa8, 0x8f, 0xba, 0x89, 0x5b, 0xa4, 0x96, 0x8d, 0x3a, 0x7d, 0x57,
  0x9c, 0xa0, 0x6a, 0xae, 0x47, 0x86, 0xb8, 0xbb, 0x7f, 0x65, 0x56, 0xa8,
  0x79, 0xc1, 0x78, 0x85, 0x6c, 0x6e, 0x48, 0x4d, 0x67, 0x9c, 0x97, 0xa3,
  0xa6, 0x57, 0xb6, 0xac, 0x65, 0x6e, 0x83, 0x92, 0xa0, 0xac, 0x6d, 0x98,
  0x47, 0x85, 0x6d, 0xa3, 0x9c, 0x6a, 0x6b, 0xa2, 0x76, 0x8e, 0x85, 0x9b,
  0xb2, 0x98, 0x50, 0x8d, 0x6f, 0x60, 0x90, 0xbf, 0x8e, 0x80, 0x79, 0x73,
  0xcb, 0x89, 0xc1, 0x76, 0x7a, 0x81, 0x9f, 0xb2, 0x86, 0x83, 0x89, 0x98,
  0xc1, 0x5d, 0x72, 0x7c, 0xac, 0xb1, 0x64, 0x5c, 0x83, 0x8b, 0x85, 0x85,
  0xae, 0x73, 0x9a, 0x9e, 0x96, 0x90, 0xc5, 0x88, 0x83, 0x84, 0x65, 0x9e,
  0x6c, 0xa0, 0x73, 0x62, 0x9c, 0x68, 0x88, 0x61, 0x6c, 0xa0, 0x71, 0xac,
  0x88, 0x68, 0x6c, 0x57, 0x63, 0x97, 0x51, 0xa5, 0xa7, 0x6f, 0x7b, 0x66,
  0x7c, 0x88, 0xab, 0x86, 0x6c, 0x83, 0x7e, 0xa2, 0x9e, 0x98, 0x81, 0xa8,
  0x98, 0x76, 0x81, 0x93, 0x82, 0x81, 0x76, 0x7b, 0xd0, 0x70, 0x5e, 0xa6,
  0x61, 0x99, 0x9e, 0x7d, 0x63, 0x87, 0xa8, 0x8b, 0xbd, 0xaf, 0xb4, 0xba,
  0x55, 0x55, 0x89, 0x84, 0xb5, 0x99, 0x80, 0x7b, 0x7b, 0x4f, 0x97, 0x96,
  0x83, 0x83, 0x62, 0xa9, 0x5d, 0x76, 0x56, 0x7b, 0x5e, 0x34, 0x4a, 0xb0,
  0x6e, 0x7b, 0x99, 0xff, 0xb5, 0x4f, 0x80, 0xab, 0xbf, 0x87, 0x8b, 0x6b,
  0x7d, 0x8e, 0x69, 0x7c, 0x1f, 0x77, 0xac, 0x93, 0xd8, 0xbc, 0x70, 0xa8,
  0x85, 0x9e, 0x90, 0x65, 0x51, 0xb1, 0xd0, 0x7b, 0x8a, 0x95, 0x95, 0xa0,
  0xaf, 0x87, 0x89, 0x66, 0xda, 0x94, 0x70, 0x4e, 0x73, 0xb1, 0x8b, 0x92,
  0x46, 0x69, 0x92, 0x80, 0x64, 0x7f, 0x87, 0x8c, 0x71, 0x9d, 0x86, 0x6e,
  0x96, 0xb9, 0xa1, 0x85, 0x54, 0x6b, 0xb5, 0x39, 0xa5, 0x8a, 0xb1, 0x7e,
  0x4d, 0x5e, 0x6d, 0x4a, 0x6f, 0x6b, 0x85, 0x74, 0x47, 0x85, 0xa8, 0x57,
  0x5e, 0xa1, 0x6d, 0x95, 0xa8, 0xa3, 0x5e, 0x90, 0x5d, 0x83, 0x46, 0x7b,
  0x79, 0x91, 0x91, 0x8d, 0xaa, 0x6b, 0xa1, 0x99, 0x46, 0x18, 0xa1, 0x72,
  0x8f, 0x81, 0x8a, 0x8c, 0x68, 0x58, 0xc4, 0x9c, 0x6d, 0x60, 0x7d, 0x6e,
  0x7a, 0x5d, 0x40, 0x5f, 0x8e, 0x60, 0x57, 0xa5, 0x5d, 0xc9, 0x82, 0x95,
  0x64, 0x6c, 0xa6, 0x8c, 0xa5, 0x4e, 0x6a, 0x99, 0x74, 0x94, 0xaa, 0x6a,
  0xa6, 0x82, 0xb2, 0x61, 0x7a, 0x39, 0x33, 0xa1, 0x93, 0x95, 0x76, 0x7d,
  0x61, 0x7f, 0xb0, 0x86, 0xcf, 0x7b, 0x62, 0x8d, 0x9a, 0x6b, 0xa3, 0x7c,
  0x7a, 0xdf, 0xff, 0xff, 0x00, 0x00, 0x00, 0x02, 0x10, 0x00, 0x00, 0x00,
  0x1b, 0x00, 0x00, 0x00, 0x14, 0x00, 0x00, 0x00, 0x38, 0x00, 0x00, 0x00,
  0x02, 0x00, 0x00, 0x00, 0x01, 0x00, 0x00, 0x00, 0x04, 0x00, 0x00, 0x00,
  0x20, 0x00, 0x00, 0x00, 0x63, 0x6f, 0x6e, 0x76, 0x31, 0x64, 0x5f, 0x32,
  0x2f, 0x63, 0x6f, 0x6e, 0x76, 0x31, 0x64, 0x2f, 0x45, 0x78, 0x70, 0x61,
  0x6e, 0x64, 0x44, 0x69, 0x6d, 0x73, 0x2f, 0x64, 0x69, 0x6d, 0x5f, 0x30,
  0x00, 0x00, 0x00, 0x00, 0xec, 0xde, 0xff, 0xff, 0x10, 0x00, 0x00, 0x00,
  0x01, 0x00, 0x00, 0x00, 0x01, 0x00, 0x00, 0x00, 0x20, 0x00, 0x00, 0x00,
  0x20, 0x00, 0x00, 0x00, 0xde, 0xdf, 0xff, 0xff, 0x00, 0x00, 0x00, 0x03,
  0x10, 0x00, 0x00, 0x00, 0x1a, 0x00, 0x00, 0x00, 0x1c, 0x00, 0x00, 0x00,
  0x34, 0x00, 0x00, 0x00, 0x04, 0x00, 0x00, 0x00, 0x01, 0x00, 0x00, 0x00,
  0x10, 0x00, 0x00, 0x00, 0x01, 0x00, 0x00, 0x00, 0x10, 0x00, 0x00, 0x00,
  0x17, 0x00, 0x00, 0x00, 0x6d, 0x61, 0x78, 0x5f, 0x70, 0x6f, 0x6f, 0x6c,
  0x69, 0x6e, 0x67, 0x31, 0x64, 0x5f, 0x32, 0x2f, 0x4d, 0x61, 0x78, 0x50,
  0x6f, 0x6f, 0x6c, 0x00, 0x24, 0xef, 0xff, 0xff, 0x30, 0x00, 0x00, 0x00,
  0x24, 0x00, 0x00, 0x00, 0x18, 0x00, 0x00, 0x00, 0x04, 0x00, 0x00, 0x00,
  0x01, 0x00, 0x00, 0x00, 0x00, 0x00, 0x00, 0x00, 0x00, 0x00, 0x00, 0x00,
  0x00, 0x00, 0x00, 0x00, 0x01, 0x00, 0x00, 0x00, 0x00, 0x00, 0x80, 0x3f,
  0x01, 0x00, 0x00, 0x00, 0x00, 0x00, 0x7f, 0x43, 0x01, 0x00, 0x00, 0x00,
  0x00, 0x00, 0x00, 0x00, 0x62, 0xe0, 0xff, 0xff, 0x00, 0x00, 0x00, 0x03,
  0x10, 0x00, 0x00, 0x00, 0x19, 0x00, 0x00, 0x00, 0x1c, 0x00, 0x00, 0x00,
  0x38, 0x00, 0x00, 0x00, 0x04, 0x00, 0x00, 0x00, 0x01, 0x00, 0x00, 0x00,
  0x01, 0x00, 0x00, 0x00, 0x20, 0x00, 0x00, 0x00, 0x20, 0x00, 0x00, 0x00,
  0x1a, 0x00, 0x00, 0x00, 0x63, 0x6f, 0x6e, 0x76, 0x31, 0x64, 0x5f, 0x32,
  0x2f, 0x63, 0x6f, 0x6e, 0x76, 0x31, 0x64, 0x2f, 0x45, 0x78, 0x70, 0x61,
  0x6e, 0x64, 0x44, 0x69, 0x6d, 0x73, 0x00, 0x00, 0xac, 0xef, 0xff, 0xff,
  0x30, 0x00, 0x00, 0x00, 0x24, 0x00, 0x00, 0x00, 0x18, 0x00, 0x00, 0x00,
  0x04, 0x00, 0x00, 0x00, 0x01, 0x00, 0x00, 0x00, 0x00, 0x00, 0x00, 0x00,
  0x00, 0x00, 0x00, 0x00, 0x00, 0x00, 0x00, 0x00, 0x01, 0x00, 0x00, 0x00,
  0x00, 0x00, 0x80, 0x3f, 0x01, 0x00, 0x00, 0x00, 0x00, 0x00, 0x7f, 0x43,
  0x01, 0x00, 0x00, 0x00, 0x00, 0x00, 0x00, 0x00, 0xea, 0xe0, 0xff, 0xff,
  0x00, 0x00, 0x00, 0x03, 0x10, 0x00, 0x00, 0x00, 0x18, 0x00, 0x00, 0x00,
  0x1c, 0x00, 0x00, 0x00, 0x38, 0x00, 0x00, 0x00, 0x04, 0x00, 0x00, 0x00,
  0x01, 0x00, 0x00, 0x00, 0x80, 0x00, 0x00, 0x00, 0x01, 0x00, 0x00, 0x00,
  0x20, 0x00, 0x00, 0x00, 0x18, 0x00, 0x00, 0x00, 0x6d, 0x61, 0x78, 0x5f,
  0x70, 0x6f, 0x6f, 0x6c, 0x69, 0x6e, 0x67, 0x31, 0x64, 0x2f, 0x45, 0x78,
  0x70, 0x61, 0x6e, 0x64, 0x44, 0x69, 0x6d, 0x73, 0x00, 0x00, 0x00, 0x00,
  0x34, 0xf0, 0xff, 0xff, 0x30, 0x00, 0x00, 0x00, 0x24, 0x00, 0x00, 0x00,
  0x18, 0x00, 0x00, 0x00, 0x04, 0x00, 0x00, 0x00, 0x01, 0x00, 0x00, 0x00,
  0x00, 0x00, 0x00, 0x00, 0x00, 0x00, 0x00, 0x00, 0x00, 0x00, 0x00, 0x00,
  0x01, 0x00, 0x00, 0x00, 0x00, 0x00, 0x80, 0x3f, 0x01, 0x00, 0x00, 0x00,
  0x00, 0x00, 0x7f, 0x43, 0x01, 0x00, 0x00, 0x00, 0x00, 0x00, 0x00, 0x00,
  0x72, 0xe1, 0xff, 0xff, 0x00, 0x00, 0x00, 0x03, 0x10, 0x00, 0x00, 0x00,
  0x17, 0x00, 0x00, 0x00, 0x1c, 0x00, 0x00, 0x00, 0x38, 0x00, 0x00, 0x00,
  0x04, 0x00, 0x00, 0x00, 0x01, 0x00, 0x00, 0x00, 0x40, 0x00, 0x00, 0x00,
  0x01, 0x00, 0x00, 0x00, 0x20, 0x00, 0x00, 0x00, 0x1a, 0x00, 0x00, 0x00,
  0x6d, 0x61, 0x78, 0x5f, 0x70, 0x6f, 0x6f, 0x6c, 0x69, 0x6e, 0x67, 0x31,
  0x64, 0x5f, 0x31, 0x2f, 0x45, 0x78, 0x70, 0x61, 0x6e, 0x64, 0x44, 0x69,
  0x6d, 0x73, 0x00, 0x00, 0xbc, 0xf0, 0xff, 0xff, 0x2c, 0x00, 0x00, 0x00,
  0x20, 0x00, 0x00, 0x00, 0x14, 0x00, 0x00, 0x00, 0x04, 0x00, 0x00, 0x00,
  0x01, 0x00, 0x00, 0x00, 0x00, 0x00, 0x00, 0x00, 0x00, 0x00, 0x00, 0x00,
  0x01, 0x00, 0x00, 0x00, 0x00, 0x00, 0x80, 0x3f, 0x01, 0x00, 0x00, 0x00,
  0x00, 0x00, 0x7f, 0x43, 0x01, 0x00, 0x00, 0x00, 0x00, 0x00, 0x00, 0x00,
  0xf6, 0xe1, 0xff, 0xff, 0x00, 0x00, 0x00, 0x03, 0x10, 0x00, 0x00, 0x00,
  0x16, 0x00, 0x00, 0x00, 0x1c, 0x00, 0x00, 0x00, 0x34, 0x00, 0x00, 0x00,
  0x04, 0x00, 0x00, 0x00, 0x01, 0x00, 0x00, 0x00, 0x40, 0x00, 0x00, 0x00,
  0x01, 0x00, 0x00, 0x00, 0x20, 0x00, 0x00, 0x00, 0x15, 0x00, 0x00, 0x00,
  0x6d, 0x61, 0x78, 0x5f, 0x70, 0x6f, 0x6f, 0x6c, 0x69, 0x6e, 0x67, 0x31,
  0x64, 0x2f, 0x4d, 0x61, 0x78, 0x50, 0x6f, 0x6f, 0x6c, 0x00, 0x00, 0x00,
  0x3c, 0xf1, 0xff, 0xff, 0x30, 0x00, 0x00, 0x00, 0x24, 0x00, 0x00, 0x00,
  0x18, 0x00, 0x00, 0x00, 0x04, 0x00, 0x00, 0x00, 0x01, 0x00, 0x00, 0x00,
  0x00, 0x00, 0x00, 0x00, 0x00, 0x00, 0x00, 0x00, 0x00, 0x00, 0x00, 0x00,
  0x01, 0x00, 0x00, 0x00, 0x00, 0x00, 0x80, 0x3f, 0x01, 0x00, 0x00, 0x00,
  0x00, 0x00, 0x7f, 0x43, 0x01, 0x00, 0x00, 0x00, 0x00, 0x00, 0x00, 0x00,
  0x7a, 0xe2, 0xff, 0xff, 0x00, 0x00, 0x00, 0x03, 0x10, 0x00, 0x00, 0x00,
  0x15, 0x00, 0x00, 0x00, 0x1c, 0x00, 0x00, 0x00, 0x38, 0x00, 0x00, 0x00,
  0x04, 0x00, 0x00, 0x00, 0x01, 0x00, 0x00, 0x00, 0x01, 0x00, 0x00, 0x00,
  0x80, 0x00, 0x00, 0x00, 0x03, 0x00, 0x00, 0x00, 0x18, 0x00, 0x00, 0x00,
  0x63, 0x6f, 0x6e, 0x76, 0x31, 0x64, 0x2f, 0x63, 0x6f, 0x6e, 0x76, 0x31,
  0x64, 0x2f, 0x45, 0x78, 0x70, 0x61, 0x6e, 0x64, 0x44, 0x69, 0x6d, 0x73,
  0x00, 0x00, 0x00, 0x00, 0xc4, 0xf1, 0xff, 0xff, 0x2c, 0x00, 0x00, 0x00,
  0x20, 0x00, 0x00, 0x00, 0x14, 0x00, 0x00, 0x00, 0x04, 0x00, 0x00, 0x00,
  0x01, 0x00, 0x00, 0x00, 0x80, 0x00, 0x00, 0x00, 0x00, 0x00, 0x00, 0x00,
  0x01, 0x00, 0x00, 0x00, 0x00, 0x00, 0x80, 0x3f, 0x01, 0x00, 0x00, 0x00,
  0x00, 0x00, 0xfe, 0x42, 0x01, 0x00, 0x00, 0x00, 0x00, 0x00, 0x00, 0xc3,
  0xfe, 0xe2, 0xff, 0xff, 0x00, 0x00, 0x00, 0x03, 0x10, 0x00, 0x00, 0x00,
  0x14, 0x00, 0x00, 0x00, 0x18, 0x00, 0x00, 0x00, 0x24, 0x00, 0x00, 0x00,
  0x03, 0x00, 0x00, 0x00, 0x01, 0x00, 0x00, 0x00, 0x80, 0x00, 0x00, 0x00,
  0x03, 0x00, 0x00, 0x00, 0x0b, 0x00, 0x00, 0x00, 0x6d, 0x6f, 0x64, 0x65,
  0x6c, 0x5f, 0x69, 0x6e, 0x70, 0x75, 0x74, 0x00, 0x34, 0xf2, 0xff, 0xff,
  0x2c, 0x00, 0x00, 0x00, 0x20, 0x00, 0x00, 0x00, 0x14, 0x00, 0x00, 0x00,
  0x04, 0x00, 0x00, 0x00, 0x01, 0x00, 0x00, 0x00, 0x80, 0x00, 0x00, 0x00,
  0x00, 0x00, 0x00, 0x00, 0x01, 0x00, 0x00, 0x00, 0x00, 0x00, 0x80, 0x3f,
  0x01, 0x00, 0x00, 0x00, 0x00, 0x00, 0xfe, 0x42, 0x01, 0x00, 0x00, 0x00,
  0x00, 0x00, 0x00, 0xc3, 0x6e, 0xe3, 0xff, 0xff, 0x00, 0x00, 0x00, 0x02,
  0x10, 0x00, 0x00, 0x00, 0x13, 0x00, 0x00, 0x00, 0x14, 0x00, 0x00, 0x00,
  0x34, 0x00, 0x00, 0x00, 0x02, 0x00, 0x00, 0x00, 0x01, 0x00, 0x00, 0x00,
  0x04, 0x00, 0x00, 0x00, 0x1e, 0x00, 0x00, 0x00, 0x63, 0x6f, 0x6e, 0x76,
  0x31, 0x64, 0x2f, 0x63, 0x6f, 0x6e, 0x76, 0x31, 0x64, 0x2f, 0x45, 0x78,
  0x70, 0x61, 0x6e, 0x64, 0x44, 0x69, 0x6d, 0x73, 0x2f, 0x64, 0x69, 0x6d,
  0x5f, 0x30, 0x00, 0x00, 0xdc, 0xe2, 0xff, 0xff, 0x10, 0x00, 0x00, 0x00,
  0x01, 0x00, 0x00, 0x00, 0x01, 0x00, 0x00, 0x00, 0x80, 0x00, 0x00, 0x00,
  0x03, 0x00, 0x00, 0x00, 0xce, 0xe3, 0xff, 0xff, 0x00, 0x00, 0x00, 0x03,
  0x10, 0x00, 0x00, 0x00, 0x12, 0x00, 0x00, 0x00, 0x14, 0x00, 0x00, 0x00,
  0x34, 0x00, 0x00, 0x00, 0x02, 0x00, 0x00, 0x00, 0x06, 0x00, 0x00, 0x00,
  0x00, 0x01, 0x00, 0x00, 0x1d, 0x00, 0x00, 0x00, 0x6d, 0x6f, 0x64, 0x65,
  0x6c, 0x5f, 0x6f, 0x75, 0x74, 0x70, 0x75, 0x74, 0x2f, 0x6b, 0x65, 0x72,
  0x6e, 0x65, 0x6c, 0x2f, 0x74, 0x72, 0x61, 0x6e, 0x73, 0x70, 0x6f, 0x73,
  0x65, 0x00, 0x00, 0x00, 0x14, 0xf3, 0xff, 0xff, 0x2c, 0x00, 0x00, 0x00,
  0x20, 0x00, 0x00, 0x00, 0x14, 0x00, 0x00, 0x00, 0x04, 0x00, 0x00, 0x00,
  0x01, 0x00, 0x00, 0x00, 0xa7, 0x00, 0x00, 0x00, 0x00, 0x00, 0x00, 0x00,
  0x01, 0x00, 0x00, 0x00, 0xcf, 0x02, 0xb7, 0x3b, 0x01, 0x00, 0x00, 0x00,
  0x7a, 0xf7, 0xfc, 0x3e, 0x01, 0x00, 0x00, 0x00, 0xdc, 0x1b, 0x6e, 0xbf,
  0x00, 0x06, 0x00, 0x00, 0x9e, 0x92, 0xba, 0x96, 0x8d, 0xc3, 0x95, 0xbc,
  0xaf, 0xad, 0xb2, 0xb4, 0x84, 0xad, 0x9f, 0xa2, 0xb8, 0xb4, 0xb9, 0xa6,
  0xb7, 0x97, 0xb2, 0xa3, 0xa0, 0x86, 0xb6, 0xd1, 0xab, 0xaa, 0xa2, 0x97,
  0xd2, 0xa0, 0xae, 0xd2, 0xaa, 0xa7, 0x91, 0xb7, 0x9e, 0xb3, 0x9a, 0xc8,
  0x8f, 0x97, 0xbd, 0xc9, 0xac, 0xa3, 0xa3, 0xaa, 0xb5, 0x82, 0xb7, 0x9f,
  0x93, 0xa1, 0xa4, 0xcf, 0xaa, 0x91, 0x88, 0xb0, 0xae, 0xa1, 0xa2, 0x8a,
  0xca, 0x97, 0x90, 0xab, 0x9c, 0xb5, 0x97, 0xc5, 0x8c, 0x9d, 0xae, 0xbb,
  0xbd, 0xad, 0x96, 0xb4, 0xba, 0x97, 0xb2, 0xaa, 0xac, 0xae, 0xb2, 0xde,
  0x8d, 0xab, 0x98, 0xa9, 0x9f, 0xa5, 0xab, 0x65, 0xbc, 0x84, 0xa0, 0xb8,
  0x9b, 0xa1, 0xab, 0xcc, 0x8f, 0xb2, 0x96, 0xda, 0x9c, 0xb2, 0x9d, 0x97,
  0xc4, 0x85, 0xb0, 0xa5, 0xb1, 0xa5, 0xa3, 0xca, 0xa4, 0xa6, 0x8c, 0xeb,
  0xaa, 0xa4, 0xab, 0xaf, 0xb5, 0xb1, 0xbc, 0x9b, 0x9e, 0xae, 0x85, 0xd6,
  0x8f, 0xb0, 0xa3, 0xd3, 0xd7, 0xb5, 0xb0, 0xb3, 0xcd, 0xae, 0x9f, 0xb3,
  0xa6, 0x84, 0xa3, 0xd9, 0xb6, 0xb0, 0x7e, 0xc1, 0x94, 0xa6, 0xa5, 0x9d,
  0xbb, 0x94, 0xa5, 0xa3, 0xa7, 0xb3, 0x87, 0xc4, 0x96, 0x97, 0x9a, 0xb4,
  0x9e, 0xbb, 0xab, 0xaf, 0xbc, 0x7a, 0x92, 0x9d, 0xae, 0x9b, 0x9c, 0xbd,
  0x92, 0x99, 0x80, 0xae, 0xa0, 0xb8, 0xb5, 0xb5, 0xc1, 0xab, 0x9d, 0xbe,
  0x93, 0xad, 0x99, 0xc7, 0xb8, 0xae, 0x94, 0xa2, 0xba, 0xaa, 0xab, 0xb7,
  0xa4, 0x90, 0x95, 0xa5, 0xa3, 0x93, 0xad, 0xdd, 0xab, 0x9d, 0x7a, 0xb0,
  0x70, 0xa2, 0x98, 0x9b, 0xbd, 0x95, 0xb5, 0xa0, 0xa1, 0xae, 0xb1, 0xb5,
  0x8e, 0xae, 0x82, 0xb8, 0xa1, 0x95, 0x98, 0xa1, 0xb2, 0x96, 0x8d, 0x9d,
  0xa1, 0x9f, 0x8c, 0xbf, 0xa8, 0x9f, 0x8a, 0xca, 0x99, 0x80, 0xbf, 0x9f,
  0x8a, 0x89, 0xad, 0xb4, 0xde, 0xaf, 0xa4, 0xa8, 0xb2, 0xb0, 0x97, 0x99,
  0xb9, 0xb9, 0xba, 0x9d, 0xa4, 0xa4, 0x90, 0xad, 0xb9, 0xaf, 0x9a, 0xaf,
  0xac, 0xc4, 0xc4, 0xad, 0xbb, 0xab, 0xbb, 0xa1, 0x88, 0xad, 0x91, 0xb1,
  0xc6, 0xc4, 0x9b, 0xa6, 0x92, 0xa4, 0x9c, 0xce, 0x9f, 0x9b, 0xaf, 0xa0,
  0x9b, 0x83, 0xab, 0x96, 0xc7, 0xb2, 0xbc, 0xa5, 0xa8, 0xa9, 0x85, 0xa2,
  0xb3, 0x9e, 0xac, 0xb2, 0x90, 0x9a, 0xaf, 0xb2, 0xd2, 0x97, 0xc6, 0xa7,
  0x97, 0xb4, 0xa9, 0x77, 0x97, 0xb3, 0xb6, 0x9a, 0x95, 0x74, 0xaf, 0x8b,
  0xce, 0xaa, 0xad, 0xbe, 0xa3, 0xd4, 0xb3, 0x9f, 0xc2, 0xaa, 0xcf, 0xaf,
  0x85, 0x87, 0xa1, 0xc3, 0xcc, 0xb3, 0x9a, 0xbb, 0xb0, 0xb1, 0x97, 0x85,
  0xc7, 0xae, 0xb7, 0xa3, 0x99, 0x78, 0xb9, 0xa3, 0xe6, 0xa6, 0x9e, 0xbb,
  0x9c, 0xa0, 0xaf, 0x99, 0x9d, 0x9c, 0xd0, 0xbf, 0x90, 0x86, 0xa1, 0x98,
  0xd1, 0xbd, 0xaa, 0xba, 0xb3, 0xb6, 0xa3, 0xa3, 0xae, 0xa7, 0xc4, 0x9c,
  0xa5, 0xaf, 0xbd, 0xb7, 0xcc, 0x9e, 0xa4, 0xc2, 0x93, 0xb5, 0xa6, 0x94,
  0x92, 0xa1, 0xd7, 0xc3, 0xa4, 0x8e, 0xab, 0xb6, 0xdc, 0xaf, 0xa6, 0x9e,
  0xa5, 0x9a, 0xa1, 0xc0, 0x95, 0x93, 0xa7, 0x96, 0x83, 0x76, 0xba, 0xa0,
  0xc6, 0xc7, 0x99, 0xa2, 0x9e, 0xbe, 0xa1, 0x99, 0xab, 0xae, 0xbc, 0xa5,
  0x96, 0x9d, 0xc2, 0xaf, 0xd1, 0xa0, 0x9b, 0x92, 0xb6, 0xd3, 0xaa, 0xc5,
  0x9c, 0xa9, 0xcf, 0xa3, 0x9e, 0xb5, 0xbc, 0x95, 0xd5, 0xa3, 0x99, 0xad,
  0x9b, 0xbf, 0xaf, 0x96, 0xac, 0xa4, 0xb2, 0xa5, 0x96, 0x8a, 0xac, 0x9d,
  0xc3, 0x9e, 0xb8, 0x91, 0xa4, 0xbe, 0xae, 0x78, 0xb9, 0xa4, 0xa9, 0x9d,
  0xa8, 0x9c, 0xbc, 0xa1, 0xc1, 0xb5, 0x9b, 0xac, 0xa9, 0xaa, 0xa1, 0x96,
  0xbc, 0x7d, 0xa5, 0xbe, 0x94, 0x94, 0xb6, 0xa2, 0x9d, 0xab, 0x98, 0xa9,
  0xb2, 0x98, 0x94, 0x9c, 0x97, 0x87, 0xc1, 0xb9, 0xc9, 0xb6, 0xb1, 0xb0,
  0x95, 0xa0, 0x8f, 0x88, 0x9d, 0xa5, 0xc2, 0xbf, 0xb5, 0x97, 0xb0, 0xa5,
  0xcc, 0xb8, 0xb0, 0xaf, 0xab, 0x9b, 0xc0, 0x8c, 0xa0, 0xa9, 0xd9, 0x89,
  0xab, 0x92, 0xaf, 0xb4, 0xd7, 0xd1, 0x9a, 0xb3, 0x98, 0xac, 0xb6, 0x97,
  0x9c, 0xb8, 0xcd, 0x9a, 0xc0, 0xb4, 0x99, 0xb9, 0xdc, 0x7a, 0xa5, 0x92,
  0x90, 0xa3, 0xc2, 0x83, 0x95, 0xa5, 0xdd, 0xaa, 0x62, 0x9d, 0xc5, 0xb8,
  0xdd, 0x73, 0xa0, 0xa2, 0x8d, 0xa3, 0x97, 0xa2, 0x98, 0xa9, 0xd2, 0x94,
  0xb0, 0xa5, 0xad, 0xbc, 0xc4, 0x9f, 0xb1, 0xa9, 0x91, 0xc7, 0x9a, 0x7f,
  0xb1, 0x78, 0xd5, 0xaf, 0xa5, 0x9d, 0xa0, 0xa2, 0xcb, 0x9f, 0xac, 0x9f,
  0x96, 0x99, 0xc0, 0x92, 0x9b, 0x9c, 0xd0, 0xa5, 0x9d, 0x9d, 0xc2, 0xb5,
  0xd0, 0xa1, 0xbb, 0xa6, 0xa2, 0x9a, 0x9f, 0xa1, 0xae, 0xaf, 0xd9, 0xd6,
  0xca, 0x99, 0xd2, 0xae, 0xc6, 0x96, 0xb3, 0xaa, 0x93, 0x8b, 0xb8, 0x95,
  0xa6, 0xa5, 0xea, 0x9c, 0xbf, 0x90, 0xb7, 0xb4, 0xcb, 0xae, 0xa1, 0x98,
  0x99, 0xc3, 0xbe, 0x90, 0xae, 0xab, 0xd4, 0xac, 0xb6, 0x95, 0xb2, 0xb5,
  0xcf, 0xc5, 0xb2, 0x95, 0xa8, 0xb1, 0x9d, 0x71, 0xb7, 0xa8, 0xc9, 0xb4,
  0xbd, 0x97, 0x98, 0xa5, 0xce, 0xa4, 0x9a, 0x7d, 0x6e, 0xa9, 0xc3, 0x77,
  0xbd, 0x9a, 0xd6, 0x9d, 0xad, 0x7c, 0xa8, 0xaa, 0xbe, 0x9d, 0xc0, 0xb4,
  0xad, 0xae, 0xb7, 0x9c, 0xb9, 0x8e, 0xd8, 0xb6, 0x99, 0x8f, 0xa3, 0x99,
  0xb5, 0x9c, 0x89, 0x90, 0x8f, 0xc1, 0x9b, 0x80, 0xa1, 0xaf, 0xb3, 0x97,
  0xa9, 0x78, 0x8b, 0xba, 0xb3, 0xad, 0x9f, 0x9f, 0x8c, 0xb0, 0x9c, 0x87,
  0x98, 0x97, 0xc3, 0xbc, 0xb4, 0xb7, 0xa3, 0x9c, 0xb0, 0xa4, 0xa2, 0x8a,
  0x54, 0xb5, 0xbc, 0xd2, 0xad, 0x84, 0xd1, 0x6b, 0xbc, 0xc7, 0xa7, 0xac,
  0x23, 0xa6, 0xaf, 0x9c, 0x31, 0x99, 0xba, 0x81, 0x8c, 0x9b, 0xb2, 0xa5,
  0xbd, 0xb0, 0x94, 0xbe, 0x59, 0x99, 0x96, 0x86, 0x4f, 0xb9, 0xab, 0x87,
  0xb2, 0x91, 0xce, 0xa3, 0xc9, 0xb2, 0x94, 0xba, 0x5d, 0x9c, 0xa9, 0x82,
  0x55, 0xa3, 0xa3, 0x79, 0x94, 0x83, 0xa1, 0xac, 0xa4, 0xc9, 0x89, 0x9e,
  0x69, 0xb0, 0xa5, 0xa2, 0x40, 0x94, 0xc0, 0x90, 0xb0, 0x97, 0x96, 0xa2,
  0xb9, 0xa1, 0x7e, 0xac, 0x66, 0xb5, 0xa0, 0xb1, 0x4c, 0xb7, 0xc9, 0x7d,
  0x99, 0x87, 0xa1, 0xb1, 0xcb, 0xc0, 0xa8, 0xac, 0x46, 0xc0, 0xc6, 0x78,
  0x5c, 0xa3, 0x97, 0x7f, 0x95, 0x81, 0xbe, 0xae, 0xbb, 0xa8, 0x8a, 0xc5,
  0x35, 0x9a, 0x9c, 0x83, 0x5e, 0xba, 0xc7, 0x7c, 0xb2, 0x92, 0xa9, 0xa2,
  0xb9, 0xb0, 0x89, 0x9d, 0x5c, 0x9d, 0x99, 0x83, 0x6f, 0xb8, 0xbf, 0x8b,
  0xad, 0x9e, 0xc5, 0x85, 0xc8, 0xaa, 0x8a, 0xb0, 0x45, 0xbe, 0xc0, 0x7b,
  0x41, 0xb7, 0xa4, 0x73, 0x99, 0x97, 0xac, 0x9c, 0xa6, 0xc1, 0xa1, 0xa5,
  0x64, 0x9a, 0xae, 0x7c, 0x6d, 0xae, 0x97, 0x80, 0xab, 0x94, 0xad, 0xb3,
  0x9b, 0xce, 0xa1, 0x9e, 0x43, 0x91, 0xaf, 0x82, 0x79, 0x98, 0x9f, 0x81,
  0x9a, 0x99, 0xac, 0xc0, 0xa2, 0xce, 0x90, 0xa4, 0x40, 0xb6, 0x91, 0xad,
  0x4a, 0xbe, 0xa5, 0x85, 0x96, 0x9a, 0xa1, 0xa1, 0xc8, 0xa8, 0x99, 0x9b,
  0x45, 0xae, 0xbf, 0xa1, 0x5c, 0xc8, 0xb5, 0x8c, 0xa4, 0x84, 0xaf, 0xb8,
  0x9f, 0xb7, 0x7d, 0xac, 0x63, 0x8e, 0x95, 0x82, 0x77, 0xba, 0xc1, 0x68,
  0xa3, 0xa6, 0xa4, 0x91, 0xc2, 0xd7, 0x97, 0x9b, 0xbb, 0x9a, 0xa3, 0x8e,
  0x6c, 0xb3, 0x9d, 0x90, 0x9c, 0xa7, 0xaa, 0xa1, 0xa4, 0xe7, 0xa4, 0xc8,
  0x00, 0x9e, 0xb9, 0x7a, 0x97, 0x99, 0xc3, 0x89, 0xbd, 0x9f, 0xff, 0x93,
  0xae, 0xaf, 0x9a, 0xbc, 0x42, 0xae, 0xc9, 0x94, 0x2b, 0x8f, 0x93, 0x79,
  0xb1, 0x8e, 0xb6, 0xba, 0xdb, 0xc6, 0xa1, 0x99, 0x43, 0xae, 0xbc, 0xa2,
  0x64, 0x94, 0xc7, 0x7d, 0x9b, 0x8c, 0xbf, 0xbf, 0xc5, 0xb6, 0x9d, 0x8b,
  0x83, 0x9a, 0xaf, 0xa2, 0x91, 0x98, 0xba, 0x96, 0xac, 0x86, 0x96, 0xac,
  0xc8, 0xb4, 0x8f, 0xba, 0x70, 0x87, 0xa9, 0x97, 0x3f, 0x82, 0xc7, 0x79,
  0x9a, 0x88, 0x9d, 0xa2, 0xc1, 0xb6, 0x9f, 0xa3, 0x83, 0xab, 0xaf, 0xa5,
  0x39, 0xb6, 0x9a, 0x6c, 0x86, 0xa2, 0xa8, 0xc7, 0xc9, 0xb5, 0x94, 0xa3,
  0x6c, 0xa6, 0xca, 0x98, 0x57, 0xb2, 0x93, 0x60, 0x81, 0x8e, 0xc4, 0xa5,
  0xd0, 0xa3, 0x96, 0xb6, 0x4e, 0x81, 0xbf, 0x91, 0x65, 0xa0, 0xa7, 0x86,
  0x8e, 0x9e, 0xb8, 0xbd, 0xc2, 0xa4, 0xb4, 0x9d, 0x66, 0x90, 0xbe, 0x8c,
  0x5d, 0xa4, 0xa9, 0x8c, 0xa1, 0xa4, 0xb3, 0xa6, 0xb1, 0xa8, 0xa2, 0x95,
  0x7f, 0xa4, 0xbe, 0x6c, 0x5d, 0x9a, 0xc0, 0x74, 0x8e, 0xa6, 0x88, 0x92,
  0xac, 0xa3, 0xa6, 0xc2, 0x32, 0xac, 0xd7, 0x83, 0x5f, 0xa3, 0xa1, 0x6e,
  0x89, 0xc1, 0xa3, 0xad, 0xa9, 0xb8, 0x89, 0xb4, 0x6d, 0x8f, 0xa2, 0xaf,
  0x49, 0x91, 0x9c, 0x90, 0x9d, 0x8d, 0xb9, 0xa2, 0xab, 0xc5, 0x91, 0x97,
  0x7b, 0xb2, 0xb4, 0x93, 0x3a, 0xb3, 0xa2, 0x6c, 0x9e, 0xa5, 0xb1, 0xb1,
  0xcd, 0xa8, 0x91, 0x98, 0x59, 0x88, 0x9d, 0x92, 0x5b, 0xaa, 0xba, 0x81,
  0x97, 0x84, 0xb0, 0xb2, 0xa5, 0xa9, 0x8b, 0x8c, 0x5f, 0xad, 0xa2, 0x8d,
  0x7d, 0xb6, 0xba, 0x7f, 0x88, 0x9a, 0x9c, 0x9d, 0xb1, 0xad, 0x96, 0x8c,
  0xe0, 0xa7, 0xbd, 0xa3, 0xf7, 0xb4, 0xa7, 0x8b, 0xa1, 0xb0, 0xb2, 0xa9,
  0xa5, 0xb0, 0x8f, 0xa8, 0xcf, 0xa0, 0x88, 0xa9, 0x95, 0xa1, 0xa1, 0xc1,
  0xc5, 0x84, 0x61, 0xbb, 0xb2, 0xaa, 0x87, 0x8e, 0x85, 0xb3, 0xa7, 0xbf,
  0xad, 0xb5, 0xb7, 0xab, 0xac, 0x6c, 0x76, 0xb3, 0xaf, 0xa3, 0x9a, 0xa5,
  0x7f, 0xa7, 0xa8, 0x9e, 0xc0, 0xbd, 0xb6, 0x9d, 0xd1, 0x65, 0xa1, 0x8e,
  0xab, 0x8a, 0x9d, 0xaa, 0x83, 0xc2, 0x86, 0x92, 0xac, 0x9a, 0xa1, 0x97,
  0xbd, 0x60, 0xad, 0xa6, 0xa2, 0xae, 0x8c, 0x9d, 0x81, 0xb9, 0x9d, 0x91,
  0xb2, 0xa3, 0x99, 0xa1, 0xcc, 0x94, 0x80, 0x97, 0x9b, 0xa6, 0x90, 0xa1,
  0xa3, 0xb1, 0x93, 0xa4, 0xa4, 0x9d, 0xbf, 0xbb, 0xda, 0x6d, 0x76, 0x97,
  0xa7, 0xa2, 0x9a, 0xaa, 0xa2, 0xab, 0xa6, 0xaa, 0xa2, 0xb7, 0xb2, 0xb9,
  0xb0, 0x79, 0x93, 0xaa, 0xac, 0xb0, 0xa0, 0xa6, 0x71, 0xc0, 0x8a, 0xb5,
  0xbc, 0xae, 0xa7, 0xb9, 0xbe, 0x84, 0xab, 0x7d, 0xb3, 0x94, 0x9d, 0xa5,
  0x92, 0xb8, 0xae, 0xb9, 0xac, 0xa1, 0x9e, 0xbb, 0xbb, 0x64, 0x90, 0x92,
  0x8c, 0x87, 0xa0, 0x9d, 0xa2, 0xa1, 0xa5, 0xbc, 0xb9, 0xa3, 0xc8, 0xa3,
  0xd3, 0x6e, 0x7f, 0xac, 0x93, 0x90, 0x9f, 0x91, 0x9e, 0xbb, 0x8d, 0xb9,
  0xaf, 0xca, 0xb6, 0x96, 0xc5, 0x83, 0x98, 0x9a, 0xa4, 0x88, 0x8a, 0xa1,
  0x7e, 0x88, 0xad, 0xa9, 0xb4, 0x8c, 0x9c, 0xa9, 0xbe, 0x8e, 0x86, 0x9f,
  0xb2, 0x85, 0x95, 0xa7, 0x96, 0x90, 0xac, 0x8e, 0xa5, 0x9a, 0x9f, 0xa9,
  0xaf, 0x93, 0x9b, 0x9b, 0x8f, 0x85, 0xb1, 0xa3, 0x9f, 0x9c, 0x9a, 0x9a,
  0xaf, 0xcc, 0xae, 0x9a, 0xd9, 0x7a, 0x9e, 0x82, 0x91, 0x9a, 0x89, 0xb5,
  0x81, 0xb7, 0x85, 0xc6, 0xa8, 0x9e, 0x90, 0x96, 0xbf, 0x77, 0x87, 0xa0,
  0x9c, 0x72, 0xd6, 0x89, 0x92, 0xab, 0x87, 0x97, 0x8d, 0xcc, 0xa3, 0xa4,
  0xce, 0x80, 0xa9, 0x8c, 0x52, 0xea, 0xff, 0xff, 0x00, 0x00, 0x00, 0x03,
  0x10, 0x00, 0x00, 0x00, 0x11, 0x00, 0x00, 0x00, 0x1c, 0x00, 0x00, 0x00,
  0x28, 0x00, 0x00, 0x00, 0x04, 0x00, 0x00, 0x00, 0x01, 0x00, 0x00, 0x00,
  0x01, 0x00, 0x00, 0x00, 0x80, 0x00, 0x00, 0x00, 0x20, 0x00, 0x00, 0x00,
  0x0b, 0x00, 0x00, 0x00, 0x63, 0x6f, 0x6e, 0x76, 0x31, 0x64, 0x2f, 0x52,
  0x65, 0x6c, 0x75, 0x00, 0x8c, 0xf9, 0xff, 0xff, 0x2c, 0x00, 0x00, 0x00,
  0x20, 0x00, 0x00, 0x00, 0x14, 0x00, 0x00, 0x00, 0x04, 0x00, 0x00, 0x00,
  0x01, 0x00, 0x00, 0x00, 0x00, 0x00, 0x00, 0x00, 0x00, 0x00, 0x00, 0x00,
  0x01, 0x00, 0x00, 0x00, 0x00, 0x00, 0x80, 0x3f, 0x01, 0x00, 0x00, 0x00,
  0x00, 0x00, 0x7f, 0x43, 0x01, 0x00, 0x00, 0x00, 0x00, 0x00, 0x00, 0x00,
  0xc6, 0xea, 0xff, 0xff, 0x00, 0x00, 0x00, 0x03, 0x10, 0x00, 0x00, 0x00,
  0x10, 0x00, 0x00, 0x00, 0x1c, 0x00, 0x00, 0x00, 0x34, 0x00, 0x00, 0x00,
  0x04, 0x00, 0x00, 0x00, 0x01, 0x00, 0x00, 0x00, 0x01, 0x00, 0x00, 0x00,
  0x40, 0x00, 0x00, 0x00, 0x20, 0x00, 0x00, 0x00, 0x17, 0x00, 0x00, 0x00,
  0x63, 0x6f, 0x6e, 0x76, 0x31, 0x64, 0x5f, 0x31, 0x2f, 0x63, 0x6f, 0x6e,
  0x76, 0x31, 0x64, 0x2f, 0x53, 0x71, 0x75, 0x65, 0x65, 0x7a, 0x65, 0x00,
  0x0c, 0xfa, 0xff, 0xff, 0x2c, 0x00, 0x00, 0x00, 0x20, 0x00, 0x00, 0x00,
  0x14, 0x00, 0x00, 0x00, 0x04, 0x00, 0x00, 0x00, 0x01, 0x00, 0x00, 0x00,
  0x00, 0x00, 0x00, 0x00, 0x00, 0x00, 0x00, 0x00, 0x01, 0x00, 0x00, 0x00,
  0x00, 0x00, 0x80, 0x3f, 0x01, 0x00, 0x00, 0x00, 0x00, 0x00, 0x7f, 0x43,
  0x01, 0x00, 0x00, 0x00, 0x00, 0x00, 0x00, 0x00, 0x46, 0xeb, 0xff, 0xff,
  0x00, 0x00, 0x00, 0x03, 0x10, 0x00, 0x00, 0x00, 0x0f, 0x00, 0x00, 0x00,
  0x1c, 0x00, 0x00, 0x00, 0x34, 0x00, 0x00, 0x00, 0x04, 0x00, 0x00, 0x00,
  0x01, 0x00, 0x00, 0x00, 0x20, 0x00, 0x00, 0x00, 0x01, 0x00, 0x00, 0x00,
  0x20, 0x00, 0x00, 0x00, 0x17, 0x00, 0x00, 0x00, 0x6d, 0x61, 0x78, 0x5f,
  0x70, 0x6f, 0x6f, 0x6c, 0x69, 0x6e, 0x67, 0x31, 0x64, 0x5f, 0x31, 0x2f,
  0x4d, 0x61, 0x78, 0x50, 0x6f, 0x6f, 0x6c, 0x00, 0x8c, 0xfa, 0xff, 0xff,
  0x2c, 0x00, 0x00, 0x00, 0x20, 0x00, 0x00, 0x00, 0x14, 0x00, 0x00, 0x00,
  0x04, 0x00, 0x00, 0x00, 0x01, 0x00, 0x00, 0x00, 0x00, 0x00, 0x00, 0x00,
  0x00, 0x00, 0x00, 0x00, 0x01, 0x00, 0x00, 0x00, 0x00, 0x00, 0x80, 0x3f,
  0x01, 0x00, 0x00, 0x00, 0x00, 0x00, 0x7f, 0x43, 0x01, 0x00, 0x00, 0x00,
  0x00, 0x00, 0x00, 0x00, 0xc6, 0xeb, 0xff, 0xff, 0x00, 0x00, 0x00, 0x03,
  0x10, 0x00, 0x00, 0x00, 0x0e, 0x00, 0x00, 0x00, 0x1c, 0x00, 0x00, 0x00,
  0x34, 0x00, 0x00, 0x00, 0x04, 0x00, 0x00, 0x00, 0x01, 0x00, 0x00, 0x00,
  0x01, 0x00, 0x00, 0x00, 0x20, 0x00, 0x00, 0x00, 0x10, 0x00, 0x00, 0x00,
  0x17, 0x00, 0x00, 0x00, 0x63, 0x6f, 0x6e, 0x76, 0x31, 0x64, 0x5f, 0x32,
  0x2f, 0x63, 0x6f, 0x6e, 0x76, 0x31, 0x64, 0x2f, 0x53, 0x71, 0x75, 0x65,
  0x65, 0x7a, 0x65, 0x00, 0x0c, 0xfb, 0xff, 0xff, 0x30, 0x00, 0x00, 0x00,
  0x24, 0x00, 0x00, 0x00, 0x18, 0x00, 0x00, 0x00, 0x04, 0x00, 0x00, 0x00,
  0x01, 0x00, 0x00, 0x00, 0x00, 0x00, 0x00, 0x00, 0x00, 0x00, 0x00, 0x00,
  0x00, 0x00, 0x00, 0x00, 0x01, 0x00, 0x00, 0x00, 0x00, 0x00, 0x80, 0x3f,
  0x01, 0x00, 0x00, 0x00, 0x00, 0x00, 0x7f, 0x43, 0x01, 0x00, 0x00, 0x00,
  0x00, 0x00, 0x00, 0x00, 0x4a, 0xec, 0xff, 0xff, 0x00, 0x00, 0x00, 0x03,
  0x10, 0x00, 0x00, 0x00, 0x0d, 0x00, 0x00, 0x00, 0x18, 0x00, 0x00, 0x00,
  0x30, 0x00, 0x00, 0x00, 0x03, 0x00, 0x00, 0x00, 0x01, 0x00, 0x00, 0x00,
  0x10, 0x00, 0x00, 0x00, 0x10, 0x00, 0x00, 0x00, 0x17, 0x00, 0x00, 0x00,
  0x6d, 0x61, 0x78, 0x5f, 0x70, 0x6f, 0x6f, 0x6c, 0x69, 0x6e, 0x67, 0x31,
  0x64, 0x5f, 0x32, 0x2f, 0x53, 0x71, 0x75, 0x65, 0x65, 0x7a, 0x65, 0x00,
  0x8c, 0xfb, 0xff, 0xff, 0x30, 0x00, 0x00, 0x00, 0x24, 0x00, 0x00, 0x00,
  0x18, 0x00, 0x00, 0x00, 0x04, 0x00, 0x00, 0x00, 0x01, 0x00, 0x00, 0x00,
  0x00, 0x00, 0x00, 0x00, 0x00, 0x00, 0x00, 0x00, 0x00, 0x00, 0x00, 0x00,
  0x01, 0x00, 0x00, 0x00, 0x00, 0x00, 0x80, 0x3f, 0x01, 0x00, 0x00, 0x00,
  0x00, 0x00, 0x7f, 0x43, 0x01, 0x00, 0x00, 0x00, 0x00, 0x00, 0x00, 0x00,
  0xca, 0xec, 0xff, 0xff, 0x00, 0x00, 0x00, 0x02, 0x10, 0x00, 0x00, 0x00,
  0x0c, 0x00, 0x00, 0x00, 0x10, 0x00, 0x00, 0x00, 0x28, 0x00, 0x00, 0x00,
  0x01, 0x00, 0x00, 0x00, 0x20, 0x00, 0x00, 0x00, 0x14, 0x00, 0x00, 0x00,
  0x63, 0x6f, 0x6e, 0x76, 0x31, 0x64, 0x5f, 0x31, 0x2f, 0x63, 0x6f, 0x6e,
  0x76, 0x31, 0x64, 0x5f, 0x62, 0x69, 0x61, 0x73, 0x00, 0x00, 0x00, 0x00,
  0xdc, 0xee, 0xff, 0xff, 0x18, 0x00, 0x00, 0x00, 0x04, 0x00, 0x00, 0x00,
  0x01, 0x00, 0x00, 0x00, 0x00, 0x00, 0x00, 0x00, 0x00, 0x00, 0x00, 0x00,
  0x00, 0x00, 0x00, 0x00, 0x01, 0x00, 0x00, 0x00, 0x4a, 0xb2, 0xd1, 0x3b,
  0x80, 0x00, 0x00, 0x00, 0x14, 0x00, 0x00, 0x00, 0xfc, 0xff, 0xff, 0xff,
  0xf0, 0xff, 0xff, 0xff, 0xe0, 0xff, 0xff, 0xff, 0xf1, 0xff, 0xff, 0xff,
  0xf2, 0xff, 0xff, 0xff, 0xfb, 0xff, 0xff, 0xff, 0xee, 0xff, 0xff, 0xff,
  0x07, 0x00, 0x00, 0x00, 0xd6, 0xff, 0xff, 0xff, 0xf7, 0xff, 0xff, 0xff,
  0xe0, 0xff, 0xff, 0xff, 0xe4, 0xff, 0xff, 0xff, 0x06, 0x00, 0x00, 0x00,
  0x14, 0x00, 0x00, 0x00, 0xf6, 0xff, 0xff, 0xff, 0xef, 0xff, 0xff, 0xff,
  0xf2, 0xff, 0xff, 0xff, 0x32, 0x00, 0x00, 0x00, 0xf1, 0xff, 0xff, 0xff,
  0x0f, 0x00, 0x00, 0x00, 0xde, 0xff, 0xff, 0xff, 0x31, 0x00, 0x00, 0x00,
  0xea, 0xff, 0xff, 0xff, 0x02, 0x00, 0x00, 0x00, 0xf6, 0xff, 0xff, 0xff,
  0x0b, 0x00, 0x00, 0x00, 0xcf, 0xff, 0xff, 0xff, 0xfb, 0xff, 0xff, 0xff,
  0xfc, 0xff, 0xff, 0xff, 0xf6, 0xff, 0xff, 0xff, 0xf3, 0xff, 0xff, 0xff,
  0xae, 0xed, 0xff, 0xff, 0x00, 0x00, 0x00, 0x03, 0x10, 0x00, 0x00, 0x00,
  0x0b, 0x00, 0x00, 0x00, 0x14, 0x00, 0x00, 0x00, 0x2c, 0x00, 0x00, 0x00,
  0x02, 0x00, 0x00, 0x00, 0x01, 0x00, 0x00, 0x00, 0x06, 0x00, 0x00, 0x00,
  0x14, 0x00, 0x00, 0x00, 0x6d, 0x6f, 0x64, 0x65, 0x6c, 0x5f, 0x6f, 0x75,
  0x74, 0x70, 0x75, 0x74, 0x2f, 0x42, 0x69, 0x61, 0x73, 0x41, 0x64, 0x64,
  0x00, 0x00, 0x00, 0x00, 0xec, 0xfc, 0xff, 0xff, 0x30, 0x00, 0x00, 0x00,
  0x24, 0x00, 0x00, 0x00, 0x18, 0x00, 0x00, 0x00, 0x04, 0x00, 0x00, 0x00,
  0x01, 0x00, 0x00, 0x00, 0x00, 0x00, 0x00, 0x00, 0x00, 0x00, 0x00, 0x00,
  0x00, 0x00, 0x00, 0x00, 0x01, 0x00, 0x00, 0x00, 0x00, 0x00, 0x80, 0x3f,
  0x01, 0x00, 0x00, 0x00, 0x00, 0x00, 0x7f, 0x43, 0x01, 0x00, 0x00, 0x00,
  0x00, 0x00, 0x00, 0x00, 0x2a, 0xee, 0xff, 0xff, 0x00, 0x00, 0x00, 0x03,
  0x10, 0x00, 0x00, 0x00, 0x0a, 0x00, 0x00, 0x00, 0x1c, 0x00, 0x00, 0x00,
  0x38, 0x00, 0x00, 0x00, 0x04, 0x00, 0x00, 0x00, 0x20, 0x00, 0x00, 0x00,
  0x01, 0x00, 0x00, 0x00, 0x03, 0x00, 0x00, 0x00, 0x03, 0x00, 0x00, 0x00,
  0x1a, 0x00, 0x00, 0x00, 0x63, 0x6f, 0x6e, 0x76, 0x31, 0x64, 0x2f, 0x63,
  0x6f, 0x6e, 0x76, 0x31, 0x64, 0x2f, 0x45, 0x78, 0x70, 0x61, 0x6e, 0x64,
  0x44, 0x69, 0x6d, 0x73, 0x5f, 0x31, 0x00, 0x00, 0x74, 0xfd, 0xff, 0xff,
  0x30, 0x00, 0x00, 0x00, 0x24, 0x00, 0x00, 0x00, 0x18, 0x00, 0x00, 0x00,
  0x04, 0x00, 0x00, 0x00, 0x01, 0x00, 0x00, 0x00, 0x80, 0x00, 0x00, 0x00,
  0x00, 0x00, 0x00, 0x00, 0x00, 0x00, 0x00, 0x00, 0x01, 0x00, 0x00, 0x00,
  0xe0, 0xc6, 0x3c, 0x3b, 0x01, 0x00, 0x00, 0x00, 0x8e, 0xf9, 0xbb, 0x3e,
  0x01, 0x00, 0x00, 0x00, 0xa5, 0x1a, 0xbc, 0xbe, 0x20, 0x01, 0x00, 0x00,
  0xab, 0x88, 0x8e, 0xa7, 0x91, 0x42, 0x85, 0x6c, 0xa9, 0x3e, 0x76, 0x9d,
  0xb9, 0x85, 0x52, 0x4b, 0x55, 0x4f, 0x3f, 0xb9, 0x7d, 0xbf, 0x51, 0xac,
  0xb2, 0x7f, 0x77, 0x70, 0x70, 0x30, 0x99, 0x55, 0x4f, 0xff, 0xaf, 0x8e,
  0xbc, 0xf0, 0x7b, 0x74, 0x2e, 0x79, 0x2c, 0x72, 0x45, 0x6b, 0x99, 0x81,
  0x50, 0xa9, 0x72, 0x6c, 0xc5, 0x94, 0xe5, 0x98, 0x69, 0xd6, 0x7a, 0x66,
  0x85, 0x7b, 0xb1, 0x65, 0x2e, 0x90, 0x92, 0x3c, 0xac, 0xca, 0x51, 0xdd,
  0x8f, 0x7d, 0xbb, 0x32, 0x70, 0x4e, 0xca, 0x8e, 0x62, 0x9a, 0x57, 0xbd,
  0x9a, 0x14, 0x5f, 0x14, 0x1b, 0x19, 0x44, 0x37, 0xcb, 0x4b, 0x64, 0x6a,
  0x98, 0x4b, 0xba, 0xae, 0x2e, 0x31, 0x48, 0x6c, 0x6e, 0x0f, 0xdb, 0xe5,
  0x63, 0xb5, 0x86, 0x1b, 0x3f, 0x58, 0x26, 0x8a, 0x99, 0x3f, 0xc9, 0x2c,
  0x2f, 0x36, 0x9a, 0xdf, 0x4c, 0xc3, 0x60, 0x4c, 0x50, 0xa0, 0x2d, 0x4c,
  0x36, 0x5c, 0xce, 0x05, 0xab, 0x2c, 0x78, 0x78, 0x57, 0x31, 0x5c, 0xa3,
  0xbe, 0xeb, 0xb4, 0xe0, 0x6e, 0x91, 0xbc, 0x92, 0xac, 0x68, 0x53, 0x7d,
  0x67, 0x44, 0x66, 0x33, 0x41, 0xde, 0x90, 0xa4, 0x95, 0x4c, 0x1e, 0x77,
  0x3d, 0x1b, 0x55, 0x33, 0xb9, 0x2c, 0xb7, 0x7b, 0x68, 0xc1, 0x6f, 0xad,
  0xec, 0x28, 0x6a, 0x9a, 0xc5, 0xd9, 0x98, 0x30, 0x5c, 0x9b, 0x3d, 0x2f,
  0x8f, 0x40, 0xb0, 0xb8, 0x8f, 0x68, 0x94, 0x2d, 0x67, 0x14, 0xc6, 0x94,
  0x00, 0xde, 0xe5, 0x43, 0x81, 0x5b, 0x93, 0x34, 0x52, 0xa8, 0x89, 0xb0,
  0x4f, 0x3d, 0x7b, 0x6c, 0xd2, 0x62, 0xb6, 0x20, 0x98, 0x48, 0xad, 0x8c,
  0xa7, 0xda, 0xb7, 0xd5, 0xa7, 0x2e, 0x22, 0x89, 0x3d, 0x61, 0xcc, 0x37,
  0x54, 0x3d, 0xb3, 0x2c, 0x3f, 0x4e, 0x94, 0x6a, 0x67, 0xdb, 0xde, 0x19,
  0x76, 0x41, 0xa5, 0xb0, 0x2f, 0x70, 0x25, 0x67, 0x26, 0x9f, 0x83, 0x2f,
  0x91, 0xa5, 0x50, 0x82, 0x68, 0x88, 0x56, 0x4b, 0x8b, 0x9d, 0x91, 0xae,
  0x18, 0x6d, 0x26, 0x27, 0x7e, 0xb3, 0x83, 0x51, 0x3b, 0x63, 0x24, 0x5b,
  0xd6, 0xef, 0xff, 0xff, 0x00, 0x00, 0x00, 0x02, 0x10, 0x00, 0x00, 0x00,
  0x09, 0x00, 0x00, 0x00, 0x10, 0x00, 0x00, 0x00, 0x24, 0x00, 0x00, 0x00,
  0x01, 0x00, 0x00, 0x00, 0x20, 0x00, 0x00, 0x00, 0x12, 0x00, 0x00, 0x00,
  0x63, 0x6f, 0x6e, 0x76, 0x31, 0x64, 0x2f, 0x63, 0x6f, 0x6e, 0x76, 0x31,
  0x64, 0x5f, 0x62, 0x69, 0x61, 0x73, 0x00, 0x00, 0xe4, 0xf1, 0xff, 0xff,
  0x14, 0x00, 0x00, 0x00, 0x04, 0x00, 0x00, 0x00, 0x01, 0x00, 0x00, 0x00,
  0x00, 0x00, 0x00, 0x00, 0x00, 0x00, 0x00, 0x00, 0x01, 0x00, 0x00, 0x00,
  0xe0, 0xc6, 0x3c, 0x3b, 0x80, 0x00, 0x00, 0x00, 0x95, 0xff, 0xff, 0xff,
  0x64, 0xff, 0xff, 0xff, 0xcd, 0xff, 0xff, 0xff, 0x6f, 0xff, 0xff, 0xff,
  0x9d, 0xff, 0xff, 0xff, 0x06, 0x00, 0x00, 0x00, 0x9a, 0xff, 0xff, 0xff,
  0x37, 0x00, 0x00, 0x00, 0xd9, 0xff, 0xff, 0xff, 0x82, 0x00, 0x00, 0x00,
  0xfc, 0xff, 0xff, 0xff, 0x7d, 0xff, 0xff, 0xff, 0x9c, 0xff, 0xff, 0xff,
  0xc9, 0xff, 0xff, 0xff, 0xd9, 0xff, 0xff, 0xff, 0x61, 0xff, 0xff, 0xff,
  0xb9, 0xff, 0xff, 0xff, 0x38, 0x00, 0x00, 0x00, 0x00, 0x00, 0x00, 0x00,
  0xec, 0xff, 0xff, 0xff, 0xde, 0xff, 0xff, 0xff, 0xeb, 0xff, 0xff, 0xff,
  0x4b, 0x00, 0x00, 0x00, 0xc5, 0xff, 0xff, 0xff, 0x76, 0xff, 0xff, 0xff,
  0xb5, 0xff, 0xff, 0xff, 0x69, 0xff, 0xff, 0xff, 0xe6, 0xff, 0xff, 0xff,
  0xdd, 0xff, 0xff, 0xff, 0xc0, 0xff, 0xff, 0xff, 0x14, 0x00, 0x00, 0x00,
  0xc3, 0xff, 0xff, 0xff, 0xb2, 0xf0, 0xff, 0xff, 0x00, 0x00, 0x00, 0x03,
  0x10, 0x00, 0x00, 0x00, 0x08, 0x00, 0x00, 0x00, 0x1c, 0x00, 0x00, 0x00,
  0x48, 0x00, 0x00, 0x00, 0x04, 0x00, 0x00, 0x00, 0x20, 0x00, 0x00, 0x00,
  0x01, 0x00, 0x00, 0x00, 0x03, 0x00, 0x00, 0x00, 0x20, 0x00, 0x00, 0x00,
  0x1c, 0x00, 0x00, 0x00, 0x63, 0x6f, 0x6e, 0x76, 0x31, 0x64, 0x5f, 0x31,
  0x2f, 0x63, 0x6f, 0x6e, 0x76, 0x31, 0x64, 0x2f, 0x45, 0x78, 0x70, 0x61,
  0x6e, 0x64, 0x44, 0x69, 0x6d, 0x73, 0x5f, 0x31, 0x00, 0x00, 0x00, 0x00,
  0x0c, 0x00, 0x14, 0x00, 0x04, 0x00, 0x08, 0x00, 0x0c, 0x00, 0x10, 0x00,
  0x0c, 0x00, 0x00, 0x00, 0x2c, 0x00, 0x00, 0x00, 0x20, 0x00, 0x00, 0x00,
  0x14, 0x00, 0x00, 0x00, 0x04, 0x00, 0x00, 0x00, 0x01, 0x00, 0x00, 0x00,
  0xa8, 0x00, 0x00, 0x00, 0x00, 0x00, 0x00, 0x00, 0x01, 0x00, 0x00, 0x00,
  0x4a, 0xb2, 0xd1, 0x3b, 0x01, 0x00, 0x00, 0x00, 0x73, 0x81, 0x0e, 0x3f,
  0x01, 0x00, 0x00, 0x00, 0xde, 0x9f, 0x89, 0xbf, 0x00, 0x0c, 0x00, 0x00,
  0x9c, 0x8d, 0xca, 0x91, 0x9f, 0x8b, 0xba, 0xe2, 0x9b, 0xb2, 0x98, 0x62,
  0xb1, 0xb5, 0xa2, 0x7b, 0xc1, 0x7f, 0x8c, 0xa8, 0xc2, 0xac, 0x9d, 0xa8,
  0x8c, 0x9f, 0xc0, 0x71, 0xa9, 0xaa, 0x8a, 0x7b, 0xaa, 0xb0, 0x8f, 0x2c,
  0x8f, 0xb2, 0xba, 0x85, 0xb2, 0x8f, 0x82, 0xa4, 0xb6, 0xa3, 0xbc, 0x6f,
  0xaa, 0x87, 0x9d, 0x70, 0xb8, 0x71, 0x9c, 0xb9, 0xd4, 0xab, 0xa2, 0x94,
  0x7a, 0xa9, 0x8f, 0xb2, 0xc8, 0xb6, 0xb2, 0x00, 0xb5, 0x84, 0xa9, 0x9b,
  0x9b, 0x7c, 0x9d, 0x78, 0x92, 0xa6, 0xac, 0x87, 0xc0, 0x63, 0xad, 0x81,
  0x96, 0x65, 0x85, 0xc3, 0x8c, 0x90, 0x8a, 0x80, 0x83, 0xad, 0x94, 0x7f,
  0x8f, 0xb0, 0xbd, 0xbf, 0xb0, 0xc2, 0x8a, 0xb6, 0x91, 0xab, 0xaf, 0x98,
  0xa3, 0xdc, 0xbd, 0xb6, 0x8b, 0xc3, 0xaf, 0xce, 0xa9, 0xc8, 0xbf, 0xc0,
  0xbd, 0x88, 0xa8, 0xaa, 0xa8, 0xa3, 0xae, 0x9e, 0x9b, 0x7b, 0x9d, 0x9c,
  0xb1, 0xad, 0x96, 0xbf, 0xb7, 0x90, 0x89, 0xc7, 0xb1, 0xaa, 0x9e, 0xb2,
  0xb5, 0x75, 0x9f, 0xa8, 0xbf, 0xbb, 0xc3, 0xaf, 0x7d, 0xba, 0xc6, 0xaa,
  0xb6, 0x7f, 0xa2, 0x77, 0xbe, 0x8f, 0xba, 0xba, 0x86, 0xb0, 0xb5, 0x6d,
  0xc3, 0x76, 0x69, 0xbb, 0x8c, 0xb6, 0x85, 0x99, 0xbf, 0x93, 0x81, 0xae,
  0xbd, 0xa6, 0xac, 0x99, 0x90, 0xd8, 0xaf, 0x99, 0x9c, 0xb1, 0x69, 0x70,
  0x8f, 0xbe, 0xac, 0x8f, 0xa4, 0xa0, 0x97, 0xb6, 0x9b, 0xb4, 0x9a, 0x90,
  0x97, 0x9b, 0x8b, 0xb8, 0x85, 0x9a, 0xbd, 0xae, 0xa3, 0xa8, 0x94, 0x86,
  0x90, 0xa3, 0x91, 0xaa, 0x9c, 0x9a, 0x9c, 0xa7, 0x77, 0xba, 0x87, 0x98,
  0xad, 0x74, 0x80, 0x8f, 0xb0, 0xa5, 0x98, 0x8d, 0x8f, 0x99, 0xbc, 0xa6,
  0x84, 0x91, 0xae, 0x8b, 0xaa, 0x9c, 0x89, 0x86, 0xb6, 0x8b, 0x8e, 0xaa,
  0xb8, 0xb7, 0x97, 0xa2, 0x7a, 0xa5, 0x7f, 0xb3, 0xa9, 0x8e, 0x8c, 0x77,
  0x99, 0x80, 0x97, 0xaf, 0x8f, 0x7f, 0xa9, 0xb7, 0x88, 0xa1, 0xa3, 0x87,
  0xae, 0xa6, 0xca, 0x89, 0xa9, 0x8d, 0xb7, 0x8b, 0x98, 0xb1, 0xa2, 0xa3,
  0x9e, 0xad, 0xad, 0xb6, 0xad, 0x82, 0xbe, 0x91, 0xb5, 0xaf, 0xae, 0xbe,
  0x93, 0x9d, 0xb2, 0x90, 0x92, 0x9d, 0xbd, 0xa6, 0xb1, 0xb0, 0xc0, 0xbd,
  0x93, 0x9d, 0x99, 0xa5, 0xc9, 0xad, 0xb4, 0xbd, 0x96, 0xa1, 0x80, 0x96,
  0xa6, 0xa7, 0xbe, 0x60, 0x90, 0x6d, 0x86, 0xc2, 0xc5, 0xa5, 0x8e, 0xba,
  0xb7, 0xac, 0xae, 0x8e, 0x96, 0x90, 0xb2, 0xb4, 0x9f, 0x8d, 0xb7, 0xa3,
  0x7f, 0x9d, 0x95, 0xb5, 0xaf, 0xa5, 0x9f, 0x8d, 0xa9, 0xbc, 0x87, 0x8c,
  0x8d, 0xa7, 0xa5, 0x8e, 0xa7, 0xe2, 0xbb, 0xc1, 0x99, 0xac, 0xd1, 0xa7,
  0x9c, 0x87, 0xa4, 0x9a, 0xd4, 0x6f, 0xaf, 0x64, 0x7f, 0x9e, 0xb9, 0xbe,
  0xbd, 0xaf, 0xb1, 0x98, 0x94, 0xa4, 0xae, 0xa5, 0x8d, 0x8c, 0x91, 0xa4,
  0xb9, 0xa3, 0x86, 0x96, 0xaf, 0x94, 0x9e, 0xa5, 0x9c, 0xb0, 0x95, 0xae,
  0x85, 0xa4, 0x99, 0x80, 0x8a, 0x93, 0x99, 0xb9, 0xac, 0x90, 0x93, 0xa2,
  0xa6, 0xb1, 0x91, 0xa3, 0x8f, 0x9c, 0x88, 0x89, 0x8a, 0x89, 0xa8, 0x81,
  0xb4, 0xac, 0x9a, 0x80, 0xbf, 0xb0, 0xa6, 0xaa, 0x8b, 0x9c, 0x84, 0x8b,
  0x88, 0x8e, 0x8f, 0xa5, 0xa6, 0x9f, 0xa1, 0xb0, 0xb4, 0xb9, 0xa7, 0x9f,
  0x9b, 0xaa, 0xb3, 0xab, 0x99, 0x83, 0x95, 0x9b, 0x94, 0x8f, 0xaf, 0x9a,
  0xa6, 0x9c, 0xad, 0xaa, 0xb9, 0xad, 0xaa, 0x89, 0x8c, 0xa7, 0x9a, 0x8e,
  0xa5, 0xab, 0xb0, 0xae, 0xab, 0x9a, 0x9f, 0xa6, 0x95, 0x88, 0x94, 0x88,
  0xb1, 0xa2, 0x9f, 0xbe, 0xa3, 0xc1, 0x91, 0x93, 0x94, 0x95, 0x8b, 0x9c,
  0xa1, 0xa0, 0xbb, 0xac, 0xa3, 0xb9, 0xa6, 0xb4, 0xa4, 0x8d, 0xa1, 0x93,
  0xa3, 0x95, 0x90, 0xa1, 0x9f, 0x94, 0x89, 0x8a, 0x96, 0x88, 0x95, 0xb8,
  0x89, 0xae, 0xa4, 0xb2, 0xb7, 0x98, 0x84, 0x9b, 0xa0, 0x96, 0xa4, 0x9f,
  0xa7, 0x87, 0x98, 0xa7, 0x81, 0xb6, 0xa3, 0xb9, 0x89, 0x85, 0x97, 0xad,
  0xaf, 0x9f, 0xb9, 0x9a, 0xb6, 0xc4, 0xb3, 0x9a, 0xb0, 0xb0, 0x99, 0x99,
  0xa1, 0x91, 0xb2, 0xb2, 0xb7, 0x87, 0xba, 0x8f, 0xaf, 0xb9, 0x9f, 0xa6,
  0xaa, 0xa3, 0x9d, 0x8e, 0x89, 0x7e, 0xb2, 0xa4, 0x9a, 0xb2, 0xb4, 0x94,
  0xa7, 0xc1, 0xc0, 0x8d, 0xad, 0x98, 0x97, 0x7f, 0xd5, 0xa1, 0xa3, 0x9f,
  0xa2, 0x7b, 0x93, 0xa7, 0xb3, 0xab, 0xb7, 0xa6, 0xa9, 0xa0, 0xb7, 0xa9,
  0xb1, 0xab, 0xac, 0xb5, 0xae, 0xe2, 0xce, 0xd8, 0xb8, 0xbc, 0xa2, 0x8a,
  0xba, 0xb8, 0x9a, 0xa9, 0x9a, 0xa4, 0xb8, 0x95, 0xae, 0x84, 0x9b, 0xd9,
  0xd0, 0x96, 0xc7, 0x9d, 0xb8, 0xa8, 0xb3, 0x9a, 0xac, 0x9f, 0x90, 0xa5,
  0xb2, 0x67, 0xc3, 0xb8, 0xa1, 0xae, 0x94, 0xaf, 0x8a, 0x85, 0xa9, 0xc8,
  0x84, 0x78, 0x7a, 0xac, 0xbe, 0xa1, 0xb8, 0xa7, 0x87, 0x98, 0xaa, 0xaf,
  0x87, 0xb4, 0x96, 0xb5, 0x9a, 0xa4, 0xaf, 0xb5, 0xc0, 0x91, 0x85, 0x92,
  0x9b, 0xb2, 0x96, 0x9e, 0xa9, 0xb7, 0x9f, 0x8b, 0x87, 0xbe, 0x91, 0xab,
  0xa7, 0x9f, 0x93, 0x96, 0x88, 0xac, 0x8a, 0x80, 0x7e, 0x96, 0xb0, 0xb3,
  0xa6, 0xc4, 0x8e, 0x8a, 0xb0, 0x9b, 0x90, 0x99, 0xbe, 0xb0, 0xaa, 0xa0,
  0x9a, 0x9f, 0x7f, 0x9f, 0xae, 0xa1, 0x9a, 0xad, 0x89, 0xaf, 0xa9, 0xb9,
  0xb0, 0xab, 0x9d, 0x96, 0xa5, 0xb3, 0x9b, 0xbd, 0x96, 0xa9, 0x8c, 0xa7,
  0x94, 0xa5, 0x7f, 0xa5, 0xaf, 0x89, 0x91, 0xa0, 0x9f, 0x84, 0xab, 0x8c,
  0x89, 0xab, 0xa3, 0xa1, 0x9d, 0xae, 0x9e, 0x96, 0xae, 0x9b, 0x86, 0xa1,
  0xb6, 0xb3, 0xbb, 0x6d, 0xdb, 0x83, 0xb5, 0x8c, 0xba, 0xc0, 0x79, 0xae,
  0x96, 0x70, 0x87, 0x7a, 0xd1, 0x92, 0xbc, 0x7c, 0xca, 0x99, 0x91, 0x98,
  0xab, 0xc5, 0x7a, 0x95, 0x8e, 0x98, 0x8b, 0xbc, 0xbc, 0xae, 0xb1, 0xe0,
  0xde, 0xb4, 0xc3, 0x99, 0xae, 0xd1, 0xb2, 0xfc, 0xbc, 0x9b, 0xfd, 0xa0,
  0x9c, 0xdb, 0xc3, 0xaa, 0x6b, 0xb9, 0xd1, 0x8f, 0x99, 0xa5, 0xb9, 0xba,
  0xc6, 0xd3, 0xa5, 0xd0, 0xaa, 0x7c, 0x9d, 0xac, 0xd3, 0xd5, 0x70, 0x90,
  0xa0, 0x28, 0xb3, 0xca, 0xdc, 0xb2, 0x9b, 0xce, 0x6d, 0x8b, 0x75, 0xad,
  0x77, 0x47, 0xc8, 0x8c, 0xb5, 0x82, 0xe4, 0xa3, 0x48, 0x8f, 0xbb, 0xa3,
  0x8c, 0xb1, 0xb0, 0xc7, 0x9a, 0xbd, 0xa8, 0x75, 0xa3, 0x92, 0xa5, 0xc8,
  0xc6, 0xca, 0xae, 0xc9, 0x86, 0xa8, 0x82, 0xac, 0xbd, 0xa5, 0xce, 0x9a,
  0xcf, 0xa6, 0xc5, 0xa8, 0x97, 0xc0, 0xa8, 0xbd, 0xb0, 0xaf, 0x90, 0xad,
  0xa9, 0x9c, 0xa2, 0x86, 0x9a, 0x7f, 0xc9, 0x8d, 0xb7, 0xa7, 0xc2, 0xc6,
  0x9a, 0xaf, 0x96, 0xb2, 0x99, 0x83, 0xaf, 0xa3, 0x9a, 0x90, 0xc7, 0x95,
  0x93, 0xb2, 0xa8, 0xc1, 0x9d, 0x9d, 0x97, 0x8d, 0xa9, 0xae, 0x86, 0xd9,
  0xac, 0xbc, 0xbe, 0x93, 0xa0, 0xb4, 0xcf, 0xc1, 0x74, 0xd4, 0xbc, 0x96,
  0x93, 0xb3, 0xa7, 0x94, 0xad, 0xae, 0xa1, 0x98, 0x9d, 0xac, 0xa1, 0xba,
  0x83, 0x9c, 0x85, 0xb3, 0x85, 0x8e, 0x9d, 0x9f, 0xb5, 0xb0, 0x85, 0x83,
  0x8d, 0xa6, 0x9f, 0xae, 0x96, 0x93, 0x95, 0x83, 0x9a, 0x94, 0xb8, 0x90,
  0xa8, 0xa8, 0x95, 0xa0, 0x88, 0xa5, 0x95, 0xaf, 0x90, 0xa1, 0x9f, 0xb6,
  0xb3, 0x89, 0xa5, 0x9f, 0x97, 0x98, 0x96, 0x83, 0xb0, 0x9b, 0xa2, 0xa7,
  0x86, 0x8c, 0xb2, 0x96, 0x8e, 0x8d, 0xa7, 0xb5, 0xa1, 0x91, 0xaa, 0x9a,
  0xb5, 0x9b, 0xad, 0x8b, 0xb6, 0x88, 0xaf, 0xa2, 0xb4, 0xae, 0xad, 0x8d,
  0x9d, 0xab, 0xa4, 0x8f, 0x9e, 0x8c, 0xb5, 0x86, 0xa6, 0xb6, 0x8d, 0x9e,
  0xa7, 0x9e, 0x8c, 0x92, 0xa5, 0xa1, 0xae, 0xae, 0xbd, 0x98, 0xa3, 0xad,
  0xa6, 0x96, 0xaa, 0x92, 0xb0, 0xbd, 0xa9, 0xb6, 0xba, 0x96, 0xb6, 0x85,
  0xcf, 0xb6, 0x8e, 0xb9, 0x8a, 0xa7, 0x7f, 0x93, 0xa3, 0xa5, 0x9a, 0x92,
  0xa0, 0xac, 0xc2, 0x5f, 0xb2, 0x95, 0xa1, 0xa5, 0xbc, 0xb4, 0xae, 0xc7,
  0xbe, 0xc0, 0x99, 0x8a, 0x94, 0x78, 0x86, 0xc3, 0xce, 0xb3, 0x8f, 0xdb,
  0xa6, 0x9a, 0x90, 0xc0, 0xa4, 0xb4, 0xc6, 0x9f, 0x78, 0x98, 0xc1, 0x98,
  0x9b, 0x93, 0xa1, 0xb2, 0x96, 0x95, 0xa7, 0xa4, 0x9f, 0xa1, 0xa6, 0xa2,
  0xbd, 0x77, 0xb6, 0xd3, 0xa8, 0xc4, 0xaf, 0xe3, 0x87, 0xb3, 0xbc, 0xaf,
  0x87, 0x87, 0xa3, 0xbb, 0xa0, 0x95, 0xcb, 0x70, 0xa4, 0x9b, 0xd0, 0xc9,
  0xa0, 0x66, 0x7e, 0x88, 0x80, 0x77, 0x90, 0x7b, 0x91, 0x87, 0x95, 0x67,
  0x79, 0x95, 0x7e, 0x8e, 0xb1, 0x88, 0x9d, 0xab, 0x89, 0x91, 0x7f, 0xab,
  0x6d, 0x8f, 0x89, 0x6d, 0x8a, 0x7f, 0x9a, 0xbb, 0x9f, 0xa9, 0x93, 0xe4,
  0xb7, 0xca, 0x84, 0x8e, 0xbd, 0xb4, 0x8c, 0xdd, 0xba, 0x9b, 0xb4, 0xa0,
  0xa5, 0x90, 0x9e, 0xb4, 0xc3, 0xbb, 0xc0, 0xac, 0x92, 0xbf, 0xa7, 0xbe,
  0x9d, 0xbc, 0x85, 0xb5, 0x88, 0xa0, 0x9b, 0xd4, 0xc2, 0xaa, 0x88, 0xa9,
  0x9f, 0xb1, 0xb9, 0xb6, 0x8d, 0x99, 0xb5, 0xa2, 0xa6, 0xb3, 0x9f, 0x9a,
  0x90, 0xd6, 0xb3, 0xb4, 0x8c, 0x95, 0xac, 0xbf, 0xba, 0xc6, 0x9a, 0x84,
  0xaf, 0xbf, 0xc0, 0x8f, 0xc5, 0x8d, 0xa7, 0xbd, 0xa5, 0xb5, 0xa8, 0x79,
  0x89, 0xcd, 0x9c, 0x94, 0x9f, 0xab, 0xb9, 0xa6, 0x74, 0x8c, 0x60, 0xa8,
  0x99, 0x95, 0xae, 0xb0, 0xb4, 0x89, 0xc6, 0xce, 0xa3, 0xbf, 0x9c, 0xa6,
  0xad, 0xb1, 0x90, 0xb4, 0xa5, 0xc0, 0xb0, 0xa3, 0x8a, 0xb0, 0xd2, 0xb2,
  0x90, 0xc4, 0xd4, 0xc0, 0x9b, 0xad, 0x89, 0xa6, 0xad, 0xac, 0xa7, 0xc5,
  0xc2, 0xd1, 0xbd, 0xa0, 0x91, 0xd6, 0xa6, 0xaf, 0x7d, 0x9d, 0xb9, 0x95,
  0xaf, 0x87, 0xa9, 0xa7, 0x9d, 0xb0, 0x7b, 0xb8, 0xbe, 0x85, 0x99, 0xcf,
  0xc4, 0xae, 0x7c, 0xa7, 0xc5, 0xbe, 0xb5, 0xe0, 0x6c, 0xa8, 0x94, 0x8c,
  0xbe, 0xa0, 0xc0, 0xb1, 0x94, 0xad, 0xb4, 0x84, 0xa9, 0x7c, 0x81, 0x8b,
  0xa6, 0xb5, 0xb1, 0x8b, 0xca, 0x9c, 0x9b, 0xb1, 0xa0, 0x84, 0xb8, 0xae,
  0xb9, 0xd6, 0xa8, 0xa8, 0x7b, 0x83, 0x9a, 0xad, 0xa2, 0xad, 0xab, 0x95,
  0xcb, 0xae, 0xa5, 0x87, 0xa0, 0xb5, 0xa6, 0xa8, 0xa8, 0xbd, 0xa7, 0x97,
  0xd4, 0x99, 0xb8, 0x9e, 0xa5, 0x96, 0xcd, 0x8f, 0x9d, 0xc7, 0xc3, 0x8f,
  0xbf, 0xa3, 0x97, 0x7b, 0xca, 0x91, 0xbb, 0xa8, 0x9c, 0xd1, 0x9c, 0xa0,
  0xa7, 0xd7, 0x8f, 0xb1, 0x90, 0x9b, 0xa4, 0xac, 0x9b, 0x93, 0xcb, 0xc2,
  0xb4, 0xc5, 0xa6, 0xc3, 0xbe, 0xc4, 0xbc, 0x97, 0xae, 0xbd, 0x8c, 0xaa,
  0x91, 0x91, 0x8b, 0x88, 0xb3, 0xac, 0xa6, 0xa5, 0x87, 0x98, 0x90, 0xb4,
  0xb3, 0x88, 0x9e, 0xad, 0x96, 0x93, 0x96, 0xac, 0xa3, 0x9f, 0x99, 0x89,
  0x95, 0x94, 0xb1, 0x9d, 0x85, 0xad, 0xb6, 0x9c, 0x96, 0xa2, 0x9a, 0x95,
  0xb5, 0xae, 0xa6, 0xb0, 0xa0, 0xb6, 0x8f, 0x89, 0xa4, 0x98, 0xae, 0xa5,
  0xa7, 0x91, 0xa3, 0x96, 0x8a, 0x91, 0x90, 0xb8, 0xad, 0xad, 0xa6, 0x84,
  0xb9, 0xa0, 0x9c, 0x97, 0x99, 0x90, 0xa0, 0xaa, 0xb0, 0x94, 0x9e, 0xad,
  0x86, 0xb6, 0xb0, 0x95, 0xa2, 0xaf, 0x93, 0x8b, 0xaa, 0x94, 0xb8, 0xb7,
  0xa4, 0x91, 0xa7, 0xa4, 0xb5, 0xa7, 0x8e, 0x97, 0xa9, 0x93, 0xb3, 0xa3,
  0x8d, 0xab, 0xa5, 0xac, 0xab, 0xab, 0x91, 0xb4, 0xa0, 0xa6, 0xac, 0x8a,
  0x8c, 0x8c, 0x9e, 0x8a, 0x92, 0x97, 0x85, 0x9e, 0x9b, 0xa2, 0x83, 0x94,
  0xa2, 0x8b, 0x99, 0x80, 0xb2, 0xa1, 0xa4, 0x8b, 0x91, 0x8f, 0xb0, 0x8e,
  0xb3, 0x95, 0xac, 0x94, 0x94, 0xa2, 0xab, 0x89, 0x9a, 0x84, 0xad, 0xaf,
  0xa0, 0x94, 0xab, 0x96, 0xb1, 0xa9, 0xac, 0x9f, 0x95, 0x9d, 0x9a, 0xa3,
  0x93, 0xbd, 0x97, 0xad, 0x88, 0xa4, 0xac, 0xb7, 0x8a, 0xa9, 0xab, 0x9d,
  0xb2, 0xad, 0xaa, 0xa1, 0x97, 0x8d, 0x97, 0x9e, 0x8b, 0x98, 0xb1, 0xab,
  0x9c, 0xb5, 0x92, 0xa9, 0xbb, 0x90, 0xb1, 0xb6, 0xb4, 0xab, 0x8c, 0xb6,
  0xb7, 0x97, 0x95, 0x8a, 0x92, 0xb2, 0xa9, 0xbc, 0x98, 0x87, 0x9f, 0x95,
  0xb5, 0x8a, 0x8d, 0xa7, 0xaa, 0xa8, 0x8b, 0xac, 0xb0, 0xa4, 0xb0, 0xae,
  0xa4, 0x8c, 0xac, 0xa5, 0x9b, 0xa4, 0xa4, 0x8f, 0xb4, 0xad, 0x99, 0x92,
  0xa0, 0xaf, 0x99, 0xa7, 0xb8, 0x94, 0x95, 0xac, 0x86, 0x8e, 0x7c, 0xa2,
  0xa1, 0x97, 0x99, 0xb6, 0x88, 0x81, 0xaf, 0xab, 0xbf, 0x9c, 0x87, 0x91,
  0xa8, 0xb8, 0x88, 0x84, 0xba, 0x93, 0xb6, 0x95, 0x87, 0xb0, 0x90, 0x9f,
  0xb0, 0x8b, 0x99, 0x8e, 0xaa, 0xb0, 0x8f, 0x9e, 0x90, 0x9d, 0x99, 0xa6,
  0x92, 0x9f, 0x81, 0x9f, 0xc5, 0x9f, 0xae, 0xb2, 0x8d, 0xa6, 0xa5, 0xa3,
  0xbd, 0xad, 0x97, 0xac, 0xb6, 0xa2, 0xcf, 0xaa, 0xaa, 0xd6, 0x81, 0x97,
  0x86, 0x8a, 0xac, 0x87, 0xdd, 0xb2, 0xa5, 0x7c, 0xc0, 0xc7, 0x84, 0xa1,
  0x89, 0x78, 0xa9, 0x79, 0xb1, 0xa7, 0x9e, 0x92, 0x78, 0xac, 0x83, 0xaa,
  0xba, 0xb6, 0xab, 0xd1, 0x8f, 0xbb, 0xc3, 0xcc, 0x94, 0x63, 0xa6, 0x9c,
  0x95, 0x8f, 0xa8, 0x81, 0xc1, 0xaa, 0xbf, 0xa2, 0x9e, 0x71, 0xae, 0xd8,
  0xa0, 0x9f, 0xb8, 0xaf, 0x8d, 0xb9, 0x9d, 0x8a, 0xb6, 0x67, 0xa1, 0xd1,
  0x9d, 0xb9, 0xd6, 0x6e, 0x85, 0x84, 0x92, 0xa2, 0x81, 0xb2, 0xb5, 0xae,
  0x9b, 0xbe, 0x74, 0xa7, 0xca, 0x3a, 0xd0, 0xc7, 0xb1, 0xb4, 0xb3, 0x9e,
  0x8f, 0xbf, 0xa6, 0xb3, 0xb2, 0xb8, 0xaa, 0x80, 0xb4, 0x91, 0x94, 0xaf,
  0xaf, 0x82, 0xa9, 0x9b, 0x99, 0x8b, 0x9f, 0xb9, 0x81, 0x9d, 0xaa, 0x9c,
  0xa5, 0xb0, 0xb8, 0xbc, 0x94, 0xaa, 0xa9, 0x97, 0xaa, 0xad, 0x8c, 0xa4,
  0x9e, 0xae, 0xb8, 0x97, 0xb3, 0x78, 0xad, 0x91, 0x83, 0xa5, 0x9f, 0x94,
  0x9b, 0xa2, 0xbe, 0xb3, 0x92, 0x97, 0xa1, 0x8d, 0x8e, 0x9d, 0x9f, 0xc0,
  0x8f, 0xc1, 0xb2, 0xa5, 0xb3, 0xb7, 0x87, 0xa9, 0xbe, 0xa5, 0x98, 0x9b,
  0x9e, 0x7f, 0x9b, 0xa7, 0x8b, 0x94, 0xbe, 0xb3, 0xa8, 0xb8, 0xbd, 0xb3,
  0x83, 0x84, 0x9c, 0xb4, 0xa4, 0xa5, 0xa6, 0xbe, 0x96, 0xb2, 0x8f, 0x88,
  0x9b, 0x98, 0xab, 0xb1, 0x8b, 0x92, 0x84, 0x8a, 0xab, 0xb5, 0xaf, 0x92,
  0x8c, 0x9a, 0xab, 0xae, 0x88, 0xb1, 0xb4, 0x8e, 0x9c, 0x83, 0xa2, 0xbc,
  0x83, 0x8e, 0x99, 0x78, 0x94, 0x9a, 0xba, 0xad, 0x9c, 0xc0, 0xa7, 0x9f,
  0x87, 0xc0, 0xb5, 0x7f, 0xa5, 0xc3, 0xa5, 0x9a, 0xa3, 0x9d, 0xa0, 0xb2,
  0xbd, 0xa1, 0xbf, 0xb7, 0x8e, 0x9f, 0xad, 0x95, 0xbd, 0xb1, 0xa8, 0xa4,
  0xbe, 0xb3, 0xb6, 0x95, 0xa9, 0xae, 0x97, 0x9c, 0x9b, 0x9f, 0xaf, 0x93,
  0xa4, 0x90, 0x86, 0x8f, 0x9c, 0x98, 0x89, 0xa5, 0xbf, 0x8e, 0x93, 0xad,
  0x8b, 0x8d, 0x92, 0xb7, 0xbb, 0xcb, 0x8b, 0x88, 0xb2, 0x94, 0xa6, 0x89,
  0xba, 0xb3, 0xb1, 0xce, 0x77, 0x8b, 0xd4, 0xd7, 0xac, 0xb1, 0x90, 0x89,
  0x80, 0xb9, 0x8d, 0xba, 0xb6, 0x8e, 0x8d, 0xb4, 0xd6, 0xe6, 0x48, 0xcc,
  0xc8, 0xa9, 0xba, 0xde, 0xa9, 0xbb, 0x71, 0x94, 0xc9, 0xc8, 0xa8, 0xb9,
  0x6c, 0x84, 0xcf, 0xc5, 0xbc, 0xa4, 0x8d, 0x6e, 0x8b, 0xa2, 0x5b, 0x74,
  0xb8, 0x6b, 0x6b, 0xaa, 0xbb, 0xbd, 0x3c, 0xa9, 0xa0, 0xa0, 0x8f, 0xb1,
  0x99, 0xab, 0x7b, 0x88, 0xb6, 0x80, 0xaf, 0x6a, 0x76, 0xa5, 0xbf, 0xa0,
  0xa9, 0x7e, 0x9d, 0xb3, 0x98, 0x65, 0x9f, 0x9c, 0xca, 0x96, 0x77, 0x84,
  0xb5, 0x8d, 0x88, 0x88, 0x66, 0x95, 0x7f, 0x6f, 0x83, 0xbc, 0x77, 0xb2,
  0xa4, 0xbc, 0xc8, 0x96, 0x8a, 0x85, 0xab, 0xad, 0xd5, 0xd2, 0xbd, 0xb7,
  0x8f, 0xc8, 0x8c, 0xb6, 0xae, 0xae, 0xc9, 0xc7, 0xea, 0xb8, 0x84, 0xb9,
  0x98, 0xb0, 0xa8, 0xc3, 0xba, 0x94, 0xa6, 0xba, 0x9d, 0xd6, 0xad, 0xbe,
  0xa7, 0x7d, 0x96, 0xbb, 0x93, 0xc4, 0xa5, 0x8e, 0x9b, 0x9f, 0xa4, 0xb0,
  0xb4, 0xb5, 0xab, 0x99, 0xa1, 0xab, 0xb3, 0xb2, 0xb5, 0x9f, 0x94, 0xbf,
  0xbe, 0xd4, 0xab, 0xb1, 0xb9, 0x9a, 0xbd, 0xa4, 0x4f, 0x82, 0x94, 0xc0,
  0xb2, 0x94, 0xd9, 0x72, 0x96, 0xa2, 0x9e, 0xac, 0xa0, 0xac, 0xb1, 0xaa,
  0xa0, 0x9c, 0x79, 0xaf, 0xaf, 0x7d, 0x8e, 0xd5, 0xa8, 0xce, 0x9b, 0xd2,
  0x86, 0xc1, 0x8a, 0xa2, 0xa3, 0x8f, 0xb8, 0x8c, 0x8f, 0x7e, 0xa2, 0xbb,
  0xbe, 0x93, 0xb4, 0xa9, 0x87, 0xab, 0xc3, 0x7b, 0x90, 0xb2, 0xb4, 0xb5,
  0xab, 0x80, 0xad, 0x85, 0xc1, 0x95, 0x96, 0xc6, 0x88, 0x94, 0xa0, 0x87,
  0xa8, 0x8d, 0xac, 0x8b, 0x89, 0x8a, 0x99, 0xa5, 0x8c, 0xb1, 0xa1, 0xa0,
  0x96, 0x98, 0xb0, 0x8c, 0xb4, 0x7b, 0xa6, 0x95, 0x98, 0x83, 0xa3, 0xa8,
  0xbd, 0xbf, 0x95, 0xa4, 0x81, 0xaa, 0x8c, 0xa3, 0x94, 0x81, 0x8b, 0x8a,
  0xa4, 0xbc, 0xab, 0xae, 0xb3, 0x97, 0x8f, 0x90, 0x99, 0x90, 0xc3, 0x85,
  0x9e, 0x8d, 0xae, 0x8c, 0xc5, 0x97, 0xab, 0xa5, 0xab, 0xb5, 0xc5, 0x97,
  0x95, 0xa3, 0x8d, 0xa7, 0xae, 0xcd, 0x70, 0xa8, 0x66, 0x4e, 0xb6, 0x93,
  0xe6, 0xcc, 0xb4, 0xe7, 0x89, 0xcd, 0x8a, 0xb8, 0x58, 0x71, 0xac, 0xa1,
  0xbb, 0xb6, 0xc9, 0x6f, 0x6b, 0x7f, 0xb3, 0xd1, 0xad, 0x9d, 0x93, 0xa2,
  0x9c, 0xb4, 0x82, 0x8d, 0x8d, 0x83, 0x97, 0xb2, 0xc9, 0xc5, 0xa7, 0xbd,
  0xb6, 0xb7, 0x96, 0x9a, 0x9d, 0x90, 0xa1, 0x89, 0x9d, 0xa0, 0xa6, 0xab,
  0x8f, 0x9e, 0x9d, 0xc0, 0xb2, 0x8f, 0x9c, 0xa6, 0x76, 0x72, 0x8c, 0xd0,
  0xd7, 0x89, 0xa3, 0x97, 0x82, 0x98, 0x77, 0xb2, 0xab, 0x74, 0xad, 0xb7,
  0xd6, 0x90, 0x54, 0xa2, 0xb1, 0xb4, 0xa2, 0xcd, 0x75, 0x9c, 0x6c, 0x82,
  0x92, 0x9d, 0x91, 0xac, 0x8f, 0x89, 0x96, 0x8e, 0x8a, 0xb3, 0xb3, 0x9a,
  0x9c, 0xb3, 0xb1, 0xa2, 0x85, 0xa8, 0xb5, 0xa0, 0x93, 0xa5, 0x89, 0x8a,
  0xa3, 0xb3, 0x9f, 0xa1, 0x9e, 0xa8, 0x9b, 0xa8, 0x9d, 0xa5, 0xb6, 0xa3,
  0x94, 0x88, 0x91, 0x87, 0xb9, 0x8d, 0xb2, 0x9c, 0xa3, 0xa8, 0x94, 0xb7,
  0x89, 0x8a, 0xb8, 0xb4, 0x8d, 0xa5, 0x97, 0xb4, 0x86, 0xab, 0x90, 0xa4,
  0x97, 0x8c, 0x84, 0x94, 0xac, 0xa7, 0x97, 0xa0, 0xac, 0x8d, 0x83, 0x9a,
  0x9b, 0x9b, 0x8a, 0xb1, 0xa6, 0xb0, 0xb9, 0x87, 0xa3, 0xb8, 0x9e, 0x99,
  0xa6, 0x97, 0x8c, 0xb1, 0xa2, 0x91, 0x9a, 0xa5, 0xaa, 0xa4, 0x8c, 0xaf,
  0xa5, 0x8c, 0xac, 0x87, 0xaa, 0x89, 0xa9, 0x8f, 0xaf, 0x87, 0x8b, 0x8a,
  0x98, 0x88, 0xaf, 0xa9, 0xc0, 0xa5, 0x9f, 0x96, 0x9d, 0x75, 0x62, 0x97,
  0xa1, 0x9d, 0xb6, 0x9a, 0x95, 0x85, 0xb0, 0xa2, 0xac, 0xb6, 0x9d, 0x76,
  0xb6, 0x90, 0x99, 0xc2, 0xa3, 0xa1, 0x94, 0x8a, 0x80, 0x85, 0x94, 0xa2,
  0xa9, 0x82, 0xbb, 0x94, 0xab, 0x89, 0x6a, 0xb6, 0x91, 0xab, 0xa7, 0x9e,
  0x82, 0xbf, 0x9b, 0xa6, 0xb6, 0xbc, 0xa7, 0xa1, 0x8e, 0x75, 0x9b, 0xb6,
  0xaf, 0xaa, 0xb8, 0xb5, 0x8c, 0xa6, 0x9a, 0x9b, 0xbe, 0x9e, 0x88, 0x88,
  0xbb, 0x84, 0x84, 0xac, 0xab, 0xa2, 0xa0, 0x88, 0x81, 0xb6, 0x8e, 0xb0,
  0x7e, 0x98, 0x88, 0xa0, 0x96, 0x9c, 0x74, 0xa0, 0xc9, 0x79, 0x7b, 0x7d,
  0xb4, 0x90, 0x87, 0x9a, 0x88, 0x74, 0x76, 0xa1, 0x73, 0x97, 0x8a, 0x93,
  0xb9, 0x89, 0x95, 0x7d, 0x8f, 0x80, 0x89, 0x7c, 0x7c, 0xa7, 0x87, 0x93,
  0xdc, 0xae, 0x78, 0x83, 0xa3, 0x90, 0xb3, 0xca, 0xaf, 0xcd, 0xb5, 0xb2,
  0x76, 0xc6, 0xd9, 0x8b, 0x8d, 0x96, 0xa9, 0x94, 0x9b, 0x8f, 0xc1, 0xb2,
  0x7a, 0xb1, 0xc8, 0xd4, 0xab, 0xa5, 0xa0, 0xb6, 0xba, 0x95, 0xa8, 0xff,
  0xd1, 0xd3, 0xd8, 0xc7, 0x9d, 0xc6, 0xb2, 0xc8, 0x88, 0xb2, 0xe7, 0xb0,
  0xb7, 0xb8, 0xae, 0xb2, 0xe5, 0xae, 0xaa, 0xb4, 0xc3, 0x9b, 0xa6, 0xdd,
  0x95, 0xb8, 0xa9, 0xa1, 0xa8, 0x91, 0xad, 0x98, 0xab, 0xb5, 0x99, 0xbb,
  0x85, 0x80, 0xaf, 0xa6, 0x83, 0x96, 0xa5, 0xa2, 0x9e, 0x93, 0x90, 0xa8,
  0x9d, 0xb0, 0xb8, 0x9b, 0xb4, 0xc0, 0xa6, 0xad, 0xa4, 0x92, 0xab, 0xba,
  0xb9, 0xa8, 0x90, 0xa0, 0x83, 0xa1, 0xb2, 0xbb, 0x89, 0x93, 0x9d, 0x91,
  0xb6, 0x93, 0xb3, 0x9f, 0x91, 0x96, 0xa0, 0x91, 0x9d, 0x93, 0x95, 0x80,
  0x9c, 0x8f, 0x92, 0x8a, 0xae, 0xb8, 0x88, 0xb2, 0x96, 0xae, 0x81, 0xbc,
  0xb6, 0x82, 0x9f, 0xbc, 0x85, 0x9f, 0x9f, 0x87, 0xaf, 0x8f, 0xb6, 0xad,
  0x84, 0x90, 0x86, 0x80, 0xa9, 0xb6, 0xb3, 0x8b, 0xb9, 0xa2, 0xbd, 0xa4,
  0x98, 0x9b, 0x69, 0xb4, 0xac, 0x9f, 0xb4, 0x69, 0x8f, 0x9f, 0x92, 0xab,
  0x9e, 0xb0, 0x95, 0xc2, 0x82, 0xc3, 0xb6, 0xb9, 0x8d, 0x9b, 0x83, 0x9b,
  0xc1, 0x92, 0xae, 0x91, 0xb3, 0xbd, 0xa3, 0xbc, 0x90, 0xac, 0x8a, 0x8a,
  0x8c, 0x86, 0xb0, 0xa7, 0x91, 0xab, 0x9a, 0x89, 0xab, 0xde, 0xb3, 0xc5,
  0x7f, 0xc3, 0xc8, 0xaa, 0x82, 0x8f, 0x89, 0xac, 0xc0, 0xa7, 0xaf, 0x8e,
  0xa5, 0xc3, 0xc4, 0x9e, 0x9f, 0xb3, 0x75, 0x7a, 0x8b, 0x6d, 0x88, 0xc2,
  0xad, 0xd3, 0xc3, 0xa1, 0x9a, 0xa9, 0xb3, 0xb9, 0x80, 0xb7, 0xac, 0x81,
  0x9d, 0x9d, 0xaa, 0xb2, 0x8a, 0xa2, 0x8f, 0x96, 0xd8, 0x9c, 0xaa, 0xae,
  0x8c, 0xa9, 0xa0, 0x92, 0x78, 0xaa, 0xb1, 0x93, 0xaa, 0xa8, 0xb4, 0xac,
  0x91, 0x97, 0x96, 0x92, 0x85, 0x90, 0x8d, 0xba, 0xaf, 0x83, 0x94, 0xc1,
  0xb0, 0xb4, 0x9c, 0xba, 0xba, 0xb9, 0xb9, 0xa3, 0x86, 0x7e, 0xb0, 0x95,
  0xa8, 0x9b, 0x93, 0xa2, 0xae, 0x9a, 0xbd, 0x9b, 0xa7, 0xa7, 0xb6, 0x99,
  0x8c, 0x9e, 0xa3, 0xaa, 0x9a, 0x96, 0x8b, 0xb9, 0xcb, 0x93, 0xa1, 0x8f,
  0x91, 0x96, 0xb7, 0x82, 0xaa, 0x7d, 0x93, 0x8e, 0x98, 0xa4, 0x8d, 0xaf,
  0x93, 0xa9, 0x9a, 0x94, 0x83, 0xa9, 0x88, 0x9a, 0x91, 0x86, 0x99, 0xa1,
  0xad, 0x8c, 0x98, 0xc0, 0xac, 0x96, 0x95, 0x99, 0xa6, 0x99, 0xa1, 0x93,
  0xb1, 0x81, 0x89, 0x9c, 0xa9, 0xad, 0x9f, 0xb0, 0x96, 0xa5, 0xb3, 0x85,
  0x89, 0xa5, 0xaf, 0x8e, 0xa0, 0xa4, 0xa9, 0x86, 0xae, 0x90, 0x96, 0x8d,
  0xa9, 0xad, 0xaa, 0xa3, 0xb1, 0x97, 0x88, 0x86, 0x9a, 0x88, 0xa7, 0x83,
  0xa7, 0x88, 0xb2, 0x9b, 0x8c, 0xa4, 0xbb, 0xb7, 0x91, 0x81, 0x81, 0xad,
  0x8d, 0x96, 0xab, 0xa0, 0xb6, 0x8f, 0xa2, 0xa3, 0x98, 0xb1, 0xab, 0x9d,
  0x99, 0x8f, 0xa0, 0x99, 0x87, 0xa4, 0x8d, 0x9f, 0xad, 0x8e, 0x9c, 0xa3,
  0xb8, 0x83, 0xb1, 0xb6, 0xae, 0x9b, 0xb7, 0x8d, 0xaf, 0xa1, 0x99, 0x82,
  0xaa, 0x90, 0xb3, 0x94, 0xb7, 0xa3, 0x9d, 0x9a, 0xab, 0xb0, 0x9f, 0x92,
  0x4a, 0xfd, 0xff, 0xff, 0x00, 0x00, 0x00, 0x02, 0x10, 0x00, 0x00, 0x00,
  0x07, 0x00, 0x00, 0x00, 0x10, 0x00, 0x00, 0x00, 0x28, 0x00, 0x00, 0x00,
  0x01, 0x00, 0x00, 0x00, 0x10, 0x00, 0x00, 0x00, 0x14, 0x00, 0x00, 0x00,
  0x63, 0x6f, 0x6e, 0x76, 0x31, 0x64, 0x5f, 0x32, 0x2f, 0x63, 0x6f, 0x6e,
  0x76, 0x31, 0x64, 0x5f, 0x62, 0x69, 0x61, 0x73, 0x00, 0x00, 0x00, 0x00,
  0x5c, 0xff, 0xff, 0xff, 0x14, 0x00, 0x00, 0x00, 0x04, 0x00, 0x00, 0x00,
  0x01, 0x00, 0x00, 0x00, 0x00, 0x00, 0x00, 0x00, 0x00, 0x00, 0x00, 0x00,
  0x01, 0x00, 0x00, 0x00, 0x7d, 0x16, 0x96, 0x3b, 0x40, 0x00, 0x00, 0x00,
  0xe5, 0xff, 0xff, 0xff, 0x84, 0x00, 0x00, 0x00, 0xdb, 0xff, 0xff, 0xff,
  0xec, 0xff, 0xff, 0xff, 0x9b, 0xff, 0xff, 0xff, 0xe2, 0xff, 0xff, 0xff,
  0xe6, 0xff, 0xff, 0xff, 0xe6, 0xff, 0xff, 0xff, 0x13, 0x00, 0x00, 0x00,
  0xef, 0xff, 0xff, 0xff, 0xef, 0xff, 0xff, 0xff, 0x08, 0x00, 0x00, 0x00,
  0xe3, 0xff, 0xff, 0xff, 0xe9, 0xff, 0xff, 0xff, 0x2a, 0x00, 0x00, 0x00,
  0xac, 0xff, 0xff, 0xff, 0xea, 0xfd, 0xff, 0xff, 0x00, 0x00, 0x00, 0x02,
  0x10, 0x00, 0x00, 0x00, 0x06, 0x00, 0x00, 0x00, 0x10, 0x00, 0x00, 0x00,
  0x38, 0x00, 0x00, 0x00, 0x01, 0x00, 0x00, 0x00, 0x06, 0x00, 0x00, 0x00,
  0x18, 0x00, 0x00, 0x00, 0x6d, 0x6f, 0x64, 0x65, 0x6c, 0x5f, 0x6f, 0x75,
  0x74, 0x70, 0x75, 0x74, 0x2f, 0x4d, 0x61, 0x74, 0x4d, 0x75, 0x6c, 0x5f,
  0x62, 0x69, 0x61, 0x73, 0x00, 0x00, 0x00, 0x00, 0x0c, 0x00, 0x0c, 0x00,
  0x00, 0x00, 0x00, 0x00, 0x04, 0x00, 0x08, 0x00, 0x0c, 0x00, 0x00, 0x00,
  0x14, 0x00, 0x00, 0x00, 0x04, 0x00, 0x00, 0x00, 0x01, 0x00, 0x00, 0x00,
  0x00, 0x00, 0x00, 0x00, 0x00, 0x00, 0x00, 0x00, 0x01, 0x00, 0x00, 0x00,
  0xcf, 0x02, 0xb7, 0x3b, 0x18, 0x00, 0x00, 0x00, 0xb0, 0xff, 0xff, 0xff,
  0xff, 0xff, 0xff, 0xff, 0x71, 0xff, 0xff, 0xff, 0x69, 0x00, 0x00, 0x00,
  0x9f, 0x00, 0x00, 0x00, 0x85, 0xff, 0xff, 0xff, 0x72, 0xfe, 0xff, 0xff,
  0x00, 0x00, 0x00, 0x02, 0x10, 0x00, 0x00, 0x00, 0x05, 0x00, 0x00, 0x00,
  0x14, 0x00, 0x00, 0x00, 0x34, 0x00, 0x00, 0x00, 0x02, 0x00, 0x00, 0x00,
  0x01, 0x00, 0x00, 0x00, 0x04, 0x00, 0x00, 0x00, 0x1e, 0x00, 0x00, 0x00,
  0x6d, 0x61, 0x78, 0x5f, 0x70, 0x6f, 0x6f, 0x6c, 0x69, 0x6e, 0x67, 0x31,
  0x64, 0x2f, 0x45, 0x78, 0x70, 0x61, 0x6e, 0x64, 0x44, 0x69, 0x6d, 0x73,
  0x2f, 0x64, 0x69, 0x6d, 0x5f, 0x30, 0x00, 0x00, 0xe0, 0xfd, 0xff, 0xff,
  0x10, 0x00, 0x00, 0x00, 0x01, 0x00, 0x00, 0x00, 0x80, 0x00, 0x00, 0x00,
  0x01, 0x00, 0x00, 0x00, 0x20, 0x00, 0x00, 0x00, 0xd2, 0xfe, 0xff, 0xff,
  0x00, 0x00, 0x00, 0x02, 0x10, 0x00, 0x00, 0x00, 0x04, 0x00, 0x00, 0x00,
  0x14, 0x00, 0x00, 0x00, 0x38, 0x00, 0x00, 0x00, 0x02, 0x00, 0x00, 0x00,
  0x01, 0x00, 0x00, 0x00, 0x04, 0x00, 0x00, 0x00, 0x20, 0x00, 0x00, 0x00,
  0x63, 0x6f, 0x6e, 0x76, 0x31, 0x64, 0x5f, 0x31, 0x2f, 0x63, 0x6f, 0x6e,
  0x76, 0x31, 0x64, 0x2f, 0x45, 0x78, 0x70, 0x61, 0x6e, 0x64, 0x44, 0x69,
  0x6d, 0x73, 0x2f, 0x64, 0x69, 0x6d, 0x5f, 0x30, 0x00, 0x00, 0x00, 0x00,
  0x44, 0xfe, 0xff, 0xff, 0x10, 0x00, 0x00, 0x00, 0x01, 0x00, 0x00, 0x00,
  0x01, 0x00, 0x00, 0x00, 0x40, 0x00, 0x00, 0x00, 0x20, 0x00, 0x00, 0x00,
  0x36, 0xff, 0xff, 0xff, 0x00, 0x00, 0x00, 0x02, 0x10, 0x00, 0x00, 0x00,
  0x03, 0x00, 0x00, 0x00, 0x14, 0x00, 0x00, 0x00, 0x38, 0x00, 0x00, 0x00,
  0x02, 0x00, 0x00, 0x00, 0x01, 0x00, 0x00, 0x00, 0x04, 0x00, 0x00, 0x00,
  0x20, 0x00, 0x00, 0x00, 0x6d, 0x61, 0x78, 0x5f, 0x70, 0x6f, 0x6f, 0x6c,
  0x69, 0x6e, 0x67, 0x31, 0x64, 0x5f, 0x31, 0x2f, 0x45, 0x78, 0x70, 0x61,
  0x6e, 0x64, 0x44, 0x69, 0x6d, 0x73, 0x2f, 0x64, 0x69, 0x6d, 0x5f, 0x30,
  0x00, 0x00, 0x00, 0x00, 0xa8, 0xfe, 0xff, 0xff, 0x10, 0x00, 0x00, 0x00,
  0x01, 0x00, 0x00, 0x00, 0x40, 0x00, 0x00, 0x00, 0x01, 0x00, 0x00, 0x00,
  0x20, 0x00, 0x00, 0x00, 0x9a, 0xff, 0xff, 0xff, 0x00, 0x00, 0x00, 0x02,
  0x10, 0x00, 0x00, 0x00, 0x02, 0x00, 0x00, 0x00, 0x14, 0x00, 0x00, 0x00,
  0x38, 0x00, 0x00, 0x00, 0x02, 0x00, 0x00, 0x00, 0x01, 0x00, 0x00, 0x00,
  0x04, 0x00, 0x00, 0x00, 0x20, 0x00, 0x00, 0x00, 0x6d, 0x61, 0x78, 0x5f,
  0x70, 0x6f, 0x6f, 0x6c, 0x69, 0x6e, 0x67, 0x31, 0x64, 0x5f, 0x32, 0x2f,
  0x45, 0x78, 0x70, 0x61, 0x6e, 0x64, 0x44, 0x69, 0x6d, 0x73, 0x2f, 0x64,
  0x69, 0x6d, 0x5f, 0x30, 0x00, 0x00, 0x00, 0x00, 0x0c, 0xff, 0xff, 0xff,
  0x10, 0x00, 0x00, 0x00, 0x01, 0x00, 0x00, 0x00, 0x20, 0x00, 0x00, 0x00,
  0x01, 0x00, 0x00, 0x00, 0x10, 0x00, 0x00, 0x00, 0x00, 0x00, 0x0e, 0x00,
  0x18, 0x00, 0x08, 0x00, 0x07, 0x00, 0x0c, 0x00, 0x10, 0x00, 0x14, 0x00,
  0x0e, 0x00, 0x00, 0x00, 0x00, 0x00, 0x00, 0x02, 0x10, 0x00, 0x00, 0x00,
  0x01, 0x00, 0x00, 0x00, 0x10, 0x00, 0x00, 0x00, 0x30, 0x00, 0x00, 0x00,
  0x01, 0x00, 0x00, 0x00, 0x03, 0x00, 0x00, 0x00, 0x1d, 0x00, 0x00, 0x00,
  0x6d, 0x61, 0x78, 0x5f, 0x70, 0x6f, 0x6f, 0x6c, 0x69, 0x6e, 0x67, 0x31,
  0x64, 0x5f, 0x32, 0x2f, 0x53, 0x71, 0x75, 0x65, 0x65, 0x7a, 0x65, 0x5f,
  0x73, 0x68, 0x61, 0x70, 0x65, 0x00, 0x00, 0x00, 0x78, 0xff, 0xff, 0xff,
  0x0c, 0x00, 0x00, 0x00, 0x01, 0x00, 0x00, 0x00, 0x10, 0x00, 0x00, 0x00,
  0x10, 0x00, 0x00, 0x00, 0x0e, 0x00, 0x00, 0x00, 0x30, 0x04, 0x00, 0x00,
  0xcc, 0x03, 0x00, 0x00, 0x64, 0x03, 0x00, 0x00, 0x08, 0x03, 0x00, 0x00,
  0xb4, 0x02, 0x00, 0x00, 0x70, 0x02, 0x00, 0x00, 0x1c, 0x02, 0x00, 0x00,
  0xd0, 0x01, 0x00, 0x00, 0x7c, 0x01, 0x00, 0x00, 0x38, 0x01, 0x00, 0x00,
  0xe4, 0x00, 0x00, 0x00, 0x98, 0x00, 0x00, 0x00, 0x48, 0x00, 0x00, 0x00,
  0x04, 0x00, 0x00, 0x00, 0x1c, 0xfc, 0xff, 0xff, 0x00, 0x00, 0x00, 0x08,
  0x01, 0x00, 0x00, 0x00, 0x10, 0x00, 0x00, 0x00, 0x1c, 0x00, 0x00, 0x00,
  0x28, 0x00, 0x00, 0x00, 0x1c, 0x00, 0x00, 0x00, 0x03, 0x00, 0x00, 0x00,
  0x18, 0x00, 0x00, 0x00, 0x1d, 0x00, 0x00, 0x00, 0x1c, 0x00, 0x00, 0x00,
  0x01, 0x00, 0x00, 0x00, 0x1b, 0x00, 0x00, 0x00, 0x00, 0x00, 0x00, 0x00,
  0x04, 0x00, 0x04, 0x00, 0x04, 0x00, 0x00, 0x00, 0x5c, 0xfc, 0xff, 0xff,
  0x00, 0x00, 0x00, 0x11, 0x03, 0x00, 0x00, 0x00, 0x10, 0x00, 0x00, 0x00,
  0x18, 0x00, 0x00, 0x00, 0x20, 0x00, 0x00, 0x00, 0x18, 0x00, 0x00, 0x00,
  0x02, 0x00, 0x00, 0x00, 0x17, 0x00, 0x00, 0x00, 0x19, 0x00, 0x00, 0x00,
  0x01, 0x00, 0x00, 0x00, 0x18, 0x00, 0x00, 0x00, 0x00, 0x00, 0x00, 0x00,
  0x46, 0xfc, 0xff, 0xff, 0x04, 0x00, 0x00, 0x00, 0x03, 0x00, 0x00, 0x00,
  0x01, 0x00, 0x00, 0x00, 0x10, 0x00, 0x00, 0x00, 0x10, 0x00, 0x00, 0x00,
  0xa8, 0xfc, 0xff, 0xff, 0x00, 0x00, 0x00, 0x05, 0x02, 0x00, 0x00, 0x00,
  0x10, 0x00, 0x00, 0x00, 0x14, 0x00, 0x00, 0x00, 0x1c, 0x00, 0x00, 0x00,
  0x14, 0x00, 0x00, 0x00, 0x01, 0x00, 0x00, 0x00, 0x15, 0x00, 0x00, 0x00,
  0x01, 0x00, 0x00, 0x00, 0x17, 0x00, 0x00, 0x00, 0x00, 0x00, 0x00, 0x00,
  0xae, 0xfd, 0xff, 0xff, 0x00, 0x00, 0x00, 0x01, 0x01, 0x00, 0x00, 0x00,
  0x02, 0x00, 0x00, 0x00, 0x01, 0x00, 0x00, 0x00, 0x02, 0x00, 0x00, 0x00,
  0xf0, 0xfc, 0xff, 0xff, 0x00, 0x00, 0x00, 0x11, 0x03, 0x00, 0x00, 0x00,
  0x10, 0x00, 0x00, 0x00, 0x18, 0x00, 0x00, 0x00, 0x20, 0x00, 0x00, 0x00,
  0x18, 0x00, 0x00, 0x00, 0x02, 0x00, 0x00, 0x00, 0x0d, 0x00, 0x00, 0x00,
  0x16, 0x00, 0x00, 0x00, 0x01, 0x00, 0x00, 0x00, 0x15, 0x00, 0x00, 0x00,
  0x00, 0x00, 0x00, 0x00, 0xda, 0xfc, 0xff, 0xff, 0x04, 0x00, 0x00, 0x00,
  0x04, 0x00, 0x00, 0x00, 0x01, 0x00, 0x00, 0x00, 0x20, 0x00, 0x00, 0x00,
  0x01, 0x00, 0x00, 0x00, 0x10, 0x00, 0x00, 0x00, 0xa0, 0xfd, 0xff, 0xff,
  0x00, 0x00, 0x00, 0x01, 0x10, 0x00, 0x00, 0x00, 0x1c, 0x00, 0x00, 0x00,
  0x24, 0x00, 0x00, 0x00, 0x1c, 0x00, 0x00, 0x00, 0x03, 0x00, 0x00, 0x00,
  0x0a, 0x00, 0x00, 0x00, 0x0c, 0x00, 0x00, 0x00, 0x0e, 0x00, 0x00, 0x00,
  0x01, 0x00, 0x00, 0x00, 0x0d, 0x00, 0x00, 0x00, 0x00, 0x00, 0x00, 0x00,
  0x8a, 0xfd, 0xff, 0xff, 0x01, 0x00, 0x00, 0x00, 0x01, 0x00, 0x00, 0x00,
  0x80, 0xfd, 0xff, 0xff, 0x00, 0x00, 0x00, 0x11, 0x03, 0x00, 0x00, 0x00,
  0x10, 0x00, 0x00, 0x00, 0x18, 0x00, 0x00, 0x00, 0x20, 0x00, 0x00, 0x00,
  0x18, 0x00, 0x00, 0x00, 0x02, 0x00, 0x00, 0x00, 0x14, 0x00, 0x00, 0x00,
  0x0b, 0x00, 0x00, 0x00, 0x01, 0x00, 0x00, 0x00, 0x0a, 0x00, 0x00, 0x00,
  0x00, 0x00, 0x00, 0x00, 0x6a, 0xfd, 0xff, 0xff, 0x04, 0x00, 0x00, 0x00,
  0x04, 0x00, 0x00, 0x00, 0x01, 0x00, 0x00, 0x00, 0x01, 0x00, 0x00, 0x00,
  0x20, 0x00, 0x00, 0x00, 0x20, 0x00, 0x00, 0x00, 0xd0, 0xfd, 0xff, 0xff,
  0x00, 0x00, 0x00, 0x05, 0x02, 0x00, 0x00, 0x00, 0x10, 0x00, 0x00, 0x00,
  0x14, 0x00, 0x00, 0x00, 0x1c, 0x00, 0x00, 0x00, 0x14, 0x00, 0x00, 0x00,
  0x01, 0x00, 0x00, 0x00, 0x12, 0x00, 0x00, 0x00, 0x01, 0x00, 0x00, 0x00,
  0x14, 0x00, 0x00, 0x00, 0x00, 0x00, 0x00, 0x00, 0xd6, 0xfe, 0xff, 0xff,
  0x00, 0x00, 0x00, 0x01, 0x01, 0x00, 0x00, 0x00, 0x02, 0x00, 0x00, 0x00,
  0x01, 0x00, 0x00, 0x00, 0x02, 0x00, 0x00, 0x00, 0x18, 0xfe, 0xff, 0xff,
  0x00, 0x00, 0x00, 0x11, 0x03, 0x00, 0x00, 0x00, 0x10, 0x00, 0x00, 0x00,
  0x18, 0x00, 0x00, 0x00, 0x20, 0x00, 0x00, 0x00, 0x18, 0x00, 0x00, 0x00,
  0x02, 0x00, 0x00, 0x00, 0x08, 0x00, 0x00, 0x00, 0x13, 0x00, 0x00, 0x00,
  0x01, 0x00, 0x00, 0x00, 0x12, 0x00, 0x00, 0x00, 0x00, 0x00, 0x00, 0x00,
  0x02, 0xfe, 0xff, 0xff, 0x04, 0x00, 0x00, 0x00, 0x04, 0x00, 0x00, 0x00,
  0x01, 0x00, 0x00, 0x00, 0x40, 0x00, 0x00, 0x00, 0x01, 0x00, 0x00, 0x00,
  0x20, 0x00, 0x00, 0x00, 0xc8, 0xfe, 0xff, 0xff, 0x00, 0x00, 0x00, 0x01,
  0x10, 0x00, 0x00, 0x00, 0x1c, 0x00, 0x00, 0x00, 0x24, 0x00, 0x00, 0x00,
  0x1c, 0x00, 0x00, 0x00, 0x03, 0x00, 0x00, 0x00, 0x05, 0x00, 0x00, 0x00,
  0x07, 0x00, 0x00, 0x00, 0x09, 0x00, 0x00, 0x00, 0x01, 0x00, 0x00, 0x00,
  0x08, 0x00, 0x00, 0x00, 0x00, 0x00, 0x00, 0x00, 0xb2, 0xfe, 0xff, 0xff,
  0x01, 0x00, 0x00, 0x00, 0x01, 0x00, 0x00, 0x00, 0xa8, 0xfe, 0xff, 0xff,
  0x00, 0x00, 0x00, 0x11, 0x03, 0x00, 0x00, 0x00, 0x10, 0x00, 0x00, 0x00,
  0x18, 0x00, 0x00, 0x00, 0x20, 0x00, 0x00, 0x00, 0x18, 0x00, 0x00, 0x00,
  0x02, 0x00, 0x00, 0x00, 0x11, 0x00, 0x00, 0x00, 0x06, 0x00, 0x00, 0x00,
  0x01, 0x00, 0x00, 0x00, 0x05, 0x00, 0x00, 0x00, 0x00, 0x00, 0x00, 0x00,
  0x92, 0xfe, 0xff, 0xff, 0x04, 0x00, 0x00, 0x00, 0x04, 0x00, 0x00, 0x00,
  0x01, 0x00, 0x00, 0x00, 0x01, 0x00, 0x00, 0x00, 0x40, 0x00, 0x00, 0x00,
  0x20, 0x00, 0x00, 0x00, 0xf8, 0xfe, 0xff, 0xff, 0x00, 0x00, 0x00, 0x05,
  0x02, 0x00, 0x00, 0x00, 0x10, 0x00, 0x00, 0x00, 0x14, 0x00, 0x00, 0x00,
  0x2c, 0x00, 0x00, 0x00, 0x14, 0x00, 0x00, 0x00, 0x01, 0x00, 0x00, 0x00,
  0x0f, 0x00, 0x00, 0x00, 0x01, 0x00, 0x00, 0x00, 0x11, 0x00, 0x00, 0x00,
  0x00, 0x00, 0x00, 0x00, 0x00, 0x00, 0x0e, 0x00, 0x18, 0x00, 0x07, 0x00,
  0x08, 0x00, 0x0c, 0x00, 0x10, 0x00, 0x14, 0x00, 0x0e, 0x00, 0x00, 0x00,
  0x00, 0x00, 0x00, 0x01, 0x01, 0x00, 0x00, 0x00, 0x02, 0x00, 0x00, 0x00,
  0x01, 0x00, 0x00, 0x00, 0x02, 0x00, 0x00, 0x00, 0x50, 0xff, 0xff, 0xff,
  0x00, 0x00, 0x00, 0x11, 0x03, 0x00, 0x00, 0x00, 0x10, 0x00, 0x00, 0x00,
  0x18, 0x00, 0x00, 0x00, 0x20, 0x00, 0x00, 0x00, 0x18, 0x00, 0x00, 0x00,
  0x02, 0x00, 0x00, 0x00, 0x00, 0x00, 0x00, 0x00, 0x10, 0x00, 0x00, 0x00,
  0x01, 0x00, 0x00, 0x00, 0x0f, 0x00, 0x00, 0x00, 0x00, 0x00, 0x00, 0x00,
  0x3a, 0xff, 0xff, 0xff, 0x04, 0x00, 0x00, 0x00, 0x04, 0x00, 0x00, 0x00,
  0x01, 0x00, 0x00, 0x00, 0x80, 0x00, 0x00, 0x00, 0x01, 0x00, 0x00, 0x00,
  0x20, 0x00, 0x00, 0x00, 0x14, 0x00, 0x18, 0x00, 0x00, 0x00, 0x08, 0x00,
  0x0c, 0x00, 0x07, 0x00, 0x10, 0x00, 0x00, 0x00, 0x00, 0x00, 0x14, 0x00,
  0x14, 0x00, 0x00, 0x00, 0x00, 0x00, 0x00, 0x01, 0x10, 0x00, 0x00, 0x00,
  0x1c, 0x00, 0x00, 0x00, 0x30, 0x00, 0x00, 0x00, 0x1c, 0x00, 0x00, 0x00,
  0x03, 0x00, 0x00, 0x00, 0x01, 0x00, 0x00, 0x00, 0x03, 0x00, 0x00, 0x00,
  0x04, 0x00, 0x00, 0x00, 0x01, 0x00, 0x00, 0x00, 0x00, 0x00, 0x00, 0x00,
  0x00, 0x00, 0x00, 0x00, 0x00, 0x00, 0x0a, 0x00, 0x0c, 0x00, 0x00, 0x00,
  0x04, 0x00, 0x08, 0x00, 0x0a, 0x00, 0x00, 0x00, 0x01, 0x00, 0x00, 0x00,
  0x01, 0x00, 0x00, 0x00, 0x14, 0x00, 0x1c, 0x00, 0x08, 0x00, 0x0c, 0x00,
  0x10, 0x00, 0x07, 0x00, 0x14, 0x00, 0x00, 0x00, 0x00, 0x00, 0x18, 0x00,
  0x14, 0x00, 0x00, 0x00, 0x00, 0x00, 0x00, 0x11, 0x03, 0x00, 0x00, 0x00,
  0x10, 0x00, 0x00, 0x00, 0x18, 0x00, 0x00, 0x00, 0x28, 0x00, 0x00, 0x00,
  0x18, 0x00, 0x00, 0x00, 0x02, 0x00, 0x00, 0x00, 0x1a, 0x00, 0x00, 0x00,
  0x02, 0x00, 0x00, 0x00, 0x01, 0x00, 0x00, 0x00, 0x01, 0x00, 0x00, 0x00,
  0x00, 0x00, 0x00, 0x00, 0x00, 0x00, 0x06, 0x00, 0x08, 0x00, 0x04, 0x00,
  0x06, 0x00, 0x00, 0x00, 0x04, 0x00, 0x00, 0x00, 0x04, 0x00, 0x00, 0x00,
  0x01, 0x00, 0x00, 0x00, 0x01, 0x00, 0x00, 0x00, 0x80, 0x00, 0x00, 0x00,
  0x03, 0x00, 0x00, 0x00, 0x04, 0x00, 0x00, 0x00, 0x30, 0x00, 0x00, 0x00,
  0x0c, 0x00, 0x00, 0x00, 0x18, 0x00, 0x00, 0x00, 0x0c, 0x00, 0x00, 0x00,
  0x96, 0xff, 0xff, 0xff, 0x00, 0x00, 0x00, 0x09, 0x9e, 0xff, 0xff, 0xff,
  0x00, 0x00, 0x00, 0x16, 0xa6, 0xff, 0xff, 0xff, 0x00, 0x00, 0x00, 0x11,
  0xae, 0xff, 0xff, 0xff, 0x00, 0x00, 0x00, 0x16, 0xb6, 0xff, 0xff, 0xff,
  0x00, 0x00, 0x00, 0x03, 0xbe, 0xff, 0xff, 0xff, 0x00, 0x00, 0x00, 0x16,
  0xc6, 0xff, 0xff, 0xff, 0x00, 0x00, 0x00, 0x11, 0xce, 0xff, 0xff, 0xff,
  0x00, 0x00, 0x00, 0x16, 0xd6, 0xff, 0xff, 0xff, 0x00, 0x00, 0x00, 0x03,
  0xde, 0xff, 0xff, 0xff, 0x00, 0x00, 0x00, 0x16, 0xe6, 0xff, 0xff, 0xff,
  0x00, 0x00, 0x00, 0x11, 0xfa, 0xff, 0xff, 0xff, 0x00, 0x16, 0x06, 0x00,
  0x06, 0x00, 0x05, 0x00, 0x06, 0x00, 0x00, 0x00, 0x00, 0x03, 0x06, 0x00,
  0x08, 0x00, 0x07, 0x00, 0x06, 0x00, 0x00, 0x00, 0x00, 0x00, 0x00, 0x16
};
const unsigned int model_tflite_len = 12312;
