#include "model.h"


// Name of model tflite flatbuffer.
const unsigned char model_tflite_name[] = {"jose"};

// Model data tflite flatbuffer.
const unsigned char model_tflite[] = {
  0x18, 0x00, 0x00, 0x00, 0x54, 0x46, 0x4c, 0x33, 0x00, 0x00, 0x0e, 0x00,
  0x18, 0x00, 0x04, 0x00, 0x08, 0x00, 0x0c, 0x00, 0x10, 0x00, 0x14, 0x00,
  0x0e, 0x00, 0x00, 0x00, 0x03, 0x00, 0x00, 0x00, 0x84, 0x10, 0x00, 0x00,
  0x0c, 0x00, 0x00, 0x00, 0x10, 0x00, 0x00, 0x00, 0x20, 0x00, 0x00, 0x00,
  0x01, 0x00, 0x00, 0x00, 0x40, 0x09, 0x00, 0x00, 0x0f, 0x00, 0x00, 0x00,
  0x54, 0x4f, 0x43, 0x4f, 0x20, 0x43, 0x6f, 0x6e, 0x76, 0x65, 0x72, 0x74,
  0x65, 0x64, 0x2e, 0x00, 0x0d, 0x00, 0x00, 0x00, 0x20, 0x09, 0x00, 0x00,
  0x08, 0x09, 0x00, 0x00, 0xd8, 0x08, 0x00, 0x00, 0x80, 0x08, 0x00, 0x00,
  0x64, 0x08, 0x00, 0x00, 0x44, 0x08, 0x00, 0x00, 0x3c, 0x08, 0x00, 0x00,
  0x34, 0x08, 0x00, 0x00, 0x2c, 0x08, 0x00, 0x00, 0x24, 0x08, 0x00, 0x00,
  0x1c, 0x08, 0x00, 0x00, 0x0c, 0x00, 0x00, 0x00, 0x04, 0x00, 0x00, 0x00,
  0x00, 0xf1, 0xff, 0xff, 0x06, 0xf0, 0xff, 0xff, 0x04, 0x00, 0x00, 0x00,
  0x00, 0x08, 0x00, 0x00, 0x84, 0x7c, 0x82, 0x7a, 0x79, 0x81, 0x7e, 0x73,
  0x7e, 0x77, 0x75, 0x7a, 0x7c, 0x9c, 0xf7, 0xba, 0x84, 0x82, 0x78, 0x80,
  0x80, 0xa1, 0xde, 0xb6, 0x79, 0x87, 0x87, 0x7c, 0x7c, 0x97, 0xe2, 0xbf,
  0x7d, 0x80, 0x7b, 0x88, 0x83, 0xa0, 0xe4, 0xb8, 0x79, 0x7c, 0x73, 0x7d,
  0x7d, 0x98, 0xea, 0xcf, 0x83, 0x7d, 0x79, 0x88, 0x78, 0x93, 0xee, 0xbe,
  0x82, 0x83, 0x81, 0x7b, 0x89, 0xa3, 0xe5, 0xc6, 0x75, 0x84, 0x7e, 0x88,
  0x80, 0x92, 0xde, 0xbf, 0x75, 0x7a, 0x81, 0x7c, 0x7e, 0x9c, 0xe1, 0xc1,
  0x7d, 0x7f, 0x81, 0x80, 0x78, 0xa1, 0xde, 0xc8, 0x85, 0x79, 0x79, 0x83,
  0x79, 0xa6, 0xe2, 0xc3, 0x79, 0x88, 0x7b, 0x7b, 0x89, 0x93, 0xf3, 0xc3,
  0x7d, 0x81, 0x7c, 0x89, 0x79, 0xa1, 0xec, 0xbc, 0x75, 0x81, 0x84, 0x75,
  0x89, 0x9f, 0xed, 0xb6, 0x79, 0x86, 0x78, 0x82, 0x7a, 0xa0, 0xe6, 0xb8,
  0x87, 0x84, 0x73, 0x79, 0x7d, 0x9f, 0xe6, 0xb7, 0x7a, 0x81, 0x7b, 0x86,
  0x86, 0x91, 0xf0, 0xb7, 0x81, 0x84, 0x75, 0x76, 0x77, 0xa0, 0xeb, 0xc3,
  0x88, 0x76, 0x85, 0x83, 0x77, 0x8f, 0xf5, 0xb9, 0x88, 0x7b, 0x84, 0x7d,
  0x86, 0x9c, 0xf4, 0xb5, 0x86, 0x7f, 0x74, 0x77, 0x7b, 0xa0, 0xf8, 0xb0,
  0x7d, 0x7c, 0x7d, 0x79, 0x7f, 0x92, 0xe4, 0xc4, 0x78, 0x7f, 0x82, 0x89,
  0x7f, 0x9c, 0xf1, 0xbf, 0x89, 0x80, 0x86, 0x7c, 0x80, 0xa1, 0xf4, 0xb4,
  0x7f, 0x83, 0x7e, 0x7a, 0x76, 0x98, 0xf6, 0xc3, 0x86, 0x85, 0x85, 0x7f,
  0x87, 0x97, 0xed, 0xb4, 0x80, 0x7e, 0x7d, 0x7c, 0x89, 0xa5, 0xfd, 0xbb,
  0x7c, 0x82, 0x72, 0x7c, 0x7b, 0x96, 0xee, 0xb2, 0x81, 0x80, 0x7b, 0x88,
  0x88, 0x9e, 0xf5, 0xb2, 0x89, 0x75, 0x80, 0x7f, 0x7e, 0x9f, 0xe8, 0xa9,
  0x85, 0x86, 0x75, 0x86, 0x79, 0x95, 0xf5, 0xb0, 0x85, 0x7f, 0x77, 0x88,
  0x78, 0x99, 0xef, 0xaf, 0x76, 0x84, 0x78, 0x82, 0x87, 0x8e, 0xf7, 0xae,
  0x81, 0x84, 0x7c, 0x7c, 0x85, 0x99, 0xe9, 0x9b, 0x7e, 0x81, 0x74, 0x7b,
  0x7c, 0x9d, 0xf3, 0xa5, 0x88, 0x7c, 0x74, 0x81, 0x7e, 0x8d, 0xe8, 0xa1,
  0x87, 0x7d, 0x85, 0x83, 0x7f, 0x91, 0xec, 0xbc, 0x82, 0x7a, 0x82, 0x87,
  0x7c, 0x97, 0xec, 0xae, 0x89, 0x76, 0x80, 0x88, 0x7a, 0xa5, 0xe9, 0xa3,
  0x7f, 0x7b, 0x7a, 0x85, 0x89, 0xa2, 0xf2, 0xa4, 0x82, 0x8a, 0x72, 0x7d,
  0x86, 0xa0, 0xf2, 0xb1, 0x88, 0x79, 0x7c, 0x7f, 0x77, 0x9e, 0xe4, 0xb0,
  0x88, 0x76, 0x7a, 0x79, 0x7f, 0x9d, 0xeb, 0xb8, 0x7f, 0x7e, 0x78, 0x7f,
  0x86, 0x92, 0xf6, 0xba, 0x86, 0x82, 0x77, 0x78, 0x7a, 0xa4, 0xf3, 0xac,
  0x77, 0x83, 0x7f, 0x89, 0x7a, 0xa5, 0xe6, 0xbb, 0x76, 0x88, 0x72, 0x88,
  0x7b, 0xa0, 0xef, 0xba, 0x89, 0x81, 0x7f, 0x79, 0x80, 0x9a, 0xee, 0xb2,
  0x84, 0x82, 0x73, 0x83, 0x88, 0x95, 0xf5, 0xac, 0x87, 0x7d, 0x83, 0x7d,
  0x85, 0x9f, 0xff, 0xb9, 0x89, 0x88, 0x72, 0x81, 0x77, 0xa3, 0xfa, 0xba,
  0x7a, 0x77, 0x79, 0x79, 0x7f, 0x9d, 0xf2, 0xab, 0x85, 0x81, 0x78, 0x81,
  0x88, 0xa5, 0xe9, 0xb0, 0x7a, 0x77, 0x74, 0x77, 0x78, 0xa0, 0xfd, 0xb8,
  0x88, 0x76, 0x7e, 0x79, 0x7e, 0x96, 0xfa, 0xc3, 0x87, 0x7f, 0x73, 0x7c,
  0x89, 0x99, 0xf8, 0xb6, 0x80, 0x82, 0x7c, 0x86, 0x7b, 0xa0, 0xef, 0xb3,
  0x7a, 0x77, 0x87, 0x82, 0x7b, 0x96, 0xfd, 0xab, 0x87, 0x82, 0x73, 0x7e,
  0x7a, 0x96, 0xe6, 0xb3, 0x80, 0x76, 0x7b, 0x88, 0x85, 0xa5, 0xf4, 0xc3,
  0x75, 0x83, 0x83, 0x82, 0x89, 0x9d, 0xef, 0xc6, 0x88, 0x7c, 0x82, 0x86,
  0x77, 0xa0, 0xf3, 0xc0, 0x87, 0x80, 0x7b, 0x7d, 0x85, 0x95, 0xe1, 0xba,
  0x86, 0x7b, 0x7f, 0x7b, 0x78, 0x9c, 0xf7, 0xb6, 0x7c, 0x7e, 0x80, 0x7a,
  0x7f, 0x9d, 0xe9, 0xad, 0x83, 0x79, 0x81, 0x7d, 0x83, 0x9b, 0xe4, 0xbf,
  0x85, 0x84, 0x80, 0x7d, 0x7f, 0x8f, 0xef, 0xc4, 0x86, 0x88, 0x79, 0x7b,
  0x80, 0x9d, 0xee, 0xb6, 0x82, 0x78, 0x81, 0x76, 0x75, 0x9d, 0xf9, 0xbf,
  0x7c, 0x87, 0x7f, 0x83, 0x81, 0x99, 0xf8, 0xc7, 0x77, 0x75, 0x77, 0x7b,
  0x89, 0xa3, 0xf3, 0xc9, 0x7b, 0x83, 0x85, 0x78, 0x80, 0x9b, 0xed, 0xcf,
  0x83, 0x82, 0x72, 0x89, 0x76, 0x9b, 0xe3, 0xc8, 0x87, 0x7b, 0x82, 0x80,
  0x76, 0xa0, 0xe8, 0xd1, 0x7b, 0x76, 0x73, 0x7d, 0x75, 0x96, 0xeb, 0xd4,
  0x80, 0x87, 0x77, 0x7b, 0x7b, 0xa2, 0xf9, 0xc6, 0x7a, 0x7e, 0x81, 0x76,
  0x87, 0x9b, 0xf7, 0xb9, 0x85, 0x84, 0x77, 0x7d, 0x89, 0xa0, 0xf6, 0xc2,
  0x75, 0x85, 0x73, 0x78, 0x78, 0x97, 0xee, 0xb5, 0x75, 0x7f, 0x73, 0x7c,
  0x88, 0x94, 0xed, 0xb6, 0x83, 0x76, 0x75, 0x7d, 0x85, 0x9a, 0xf2, 0xbb,
  0x78, 0x79, 0x80, 0x7a, 0x83, 0x92, 0xf5, 0xbd, 0x75, 0x79, 0x84, 0x7f,
  0x88, 0x9f, 0xe7, 0xae, 0x83, 0x7e, 0x83, 0x89, 0x77, 0xa2, 0xf3, 0xb5,
  0x87, 0x78, 0x80, 0x82, 0x83, 0xa2, 0xe5, 0xc2, 0x7a, 0x81, 0x79, 0x89,
  0x7a, 0x9c, 0xed, 0xba, 0x76, 0x85, 0x77, 0x89, 0x76, 0x9b, 0xe8, 0xbd,
  0x80, 0x7f, 0x86, 0x7c, 0x79, 0x9d, 0xec, 0xc5, 0x7c, 0x78, 0x79, 0x82,
  0x85, 0xa4, 0xf0, 0xb7, 0x7e, 0x7a, 0x82, 0x82, 0x79, 0x9e, 0xfd, 0xc2,
  0x85, 0x86, 0x77, 0x85, 0x7e, 0x93, 0xf2, 0xc6, 0x85, 0x7b, 0x79, 0x87,
  0x85, 0x93, 0xf2, 0xbe, 0x84, 0x81, 0x76, 0x7e, 0x7b, 0xa6, 0xe7, 0xb8,
  0x75, 0x88, 0x7e, 0x89, 0x89, 0x9d, 0xe4, 0xae, 0x81, 0x7d, 0x74, 0x7b,
  0x7a, 0x97, 0xee, 0xbd, 0x78, 0x7a, 0x7e, 0x7f, 0x83, 0x9a, 0xed, 0xac,
  0x87, 0x79, 0x7f, 0x76, 0x79, 0x99, 0xe8, 0xb0, 0x7a, 0x79, 0x7e, 0x78,
  0x84, 0x98, 0xe8, 0xa2, 0x7a, 0x76, 0x7d, 0x83, 0x84, 0x95, 0xf5, 0xa5,
  0x84, 0x7a, 0x86, 0x7c, 0x7f, 0x9d, 0xe7, 0xb3, 0x7a, 0x85, 0x74, 0x83,
  0x80, 0x9b, 0xf3, 0xbc, 0x87, 0x7e, 0x79, 0x76, 0x75, 0x93, 0xef, 0xbe,
  0x79, 0x80, 0x81, 0x85, 0x7c, 0x9d, 0xeb, 0xb3, 0x81, 0x7d, 0x79, 0x85,
  0x77, 0xa6, 0xe5, 0xb3, 0x88, 0x80, 0x79, 0x78, 0x78, 0xa4, 0xed, 0xb3,
  0x79, 0x80, 0x7f, 0x76, 0x7f, 0xa1, 0xef, 0xc1, 0x79, 0x86, 0x76, 0x89,
  0x7a, 0xa7, 0xef, 0xb7, 0x82, 0x80, 0x72, 0x87, 0x78, 0x9c, 0xf1, 0xb0,
  0x87, 0x83, 0x81, 0x86, 0x88, 0xa2, 0xf7, 0xc1, 0x84, 0x87, 0x7c, 0x82,
  0x7b, 0x96, 0xf0, 0xb8, 0x7e, 0x7d, 0x76, 0x76, 0x7a, 0x98, 0xe2, 0xbf,
  0x81, 0x81, 0x73, 0x78, 0x84, 0x99, 0xeb, 0xc1, 0x87, 0x83, 0x79, 0x79,
  0x87, 0x95, 0xf0, 0xb9, 0x80, 0x7b, 0x76, 0x83, 0x7f, 0x96, 0xf9, 0xc0,
  0x85, 0x7b, 0x80, 0x76, 0x7b, 0xa0, 0xed, 0xca, 0x88, 0x76, 0x81, 0x82,
  0x79, 0x98, 0xf6, 0xbd, 0x75, 0x84, 0x76, 0x85, 0x79, 0x9d, 0xf2, 0xc1,
  0x7e, 0x85, 0x85, 0x76, 0x79, 0xa6, 0xf7, 0xc4, 0x7a, 0x79, 0x84, 0x77,
  0x85, 0xa5, 0xe9, 0xc2, 0x7a, 0x77, 0x77, 0x88, 0x82, 0xa6, 0xea, 0xc0,
  0x7f, 0x8a, 0x84, 0x85, 0x78, 0x9e, 0xfc, 0xb9, 0x76, 0x84, 0x7d, 0x83,
  0x79, 0x9d, 0xf7, 0xb7, 0x82, 0x8a, 0x84, 0x7a, 0x78, 0xa6, 0xe6, 0xb1,
  0x7c, 0x7e, 0x86, 0x79, 0x81, 0xa1, 0xe2, 0xc1, 0x81, 0x87, 0x7d, 0x7e,
  0x79, 0x9c, 0xe6, 0xb6, 0x79, 0x80, 0x76, 0x82, 0x7c, 0x9f, 0xee, 0xc0,
  0x83, 0x86, 0x81, 0x75, 0x8f, 0xa4, 0x86, 0x84, 0x78, 0x80, 0x78, 0x85,
  0x7b, 0x7f, 0x88, 0x7f, 0x7c, 0x77, 0x82, 0x87, 0x79, 0x68, 0x07, 0x41,
  0x7f, 0x81, 0x80, 0x7d, 0x86, 0x66, 0x19, 0x40, 0x75, 0x78, 0x80, 0x86,
  0x7e, 0x67, 0x16, 0x38, 0x86, 0x83, 0x81, 0x7e, 0x81, 0x65, 0x16, 0x35,
  0x83, 0x78, 0x8b, 0x86, 0x84, 0x69, 0x20, 0x42, 0x7b, 0x77, 0x87, 0x88,
  0x7f, 0x60, 0x1f, 0x35, 0x78, 0x85, 0x86, 0x89, 0x7d, 0x5b, 0x10, 0x3d,
  0x83, 0x7d, 0x78, 0x76, 0x84, 0x6b, 0x18, 0x40, 0x83, 0x79, 0x87, 0x88,
  0x77, 0x5f, 0x1d, 0x33, 0x7a, 0x80, 0x88, 0x7f, 0x7f, 0x65, 0x1a, 0x2b,
  0x7e, 0x75, 0x7e, 0x75, 0x85, 0x61, 0x0c, 0x29, 0x7d, 0x83, 0x89, 0x7f,
  0x77, 0x63, 0x0c, 0x32, 0x85, 0x80, 0x77, 0x79, 0x7c, 0x5c, 0x0d, 0x35,
  0x88, 0x7b, 0x87, 0x84, 0x82, 0x6c, 0x0c, 0x3a, 0x83, 0x7c, 0x86, 0x88,
  0x76, 0x69, 0x14, 0x4b, 0x85, 0x7f, 0x80, 0x81, 0x7a, 0x61, 0x0e, 0x42,
  0x75, 0x85, 0x81, 0x82, 0x87, 0x5e, 0x1d, 0x51, 0x7c, 0x78, 0x86, 0x84,
  0x7e, 0x65, 0x14, 0x44, 0x7f, 0x7a, 0x7c, 0x7e, 0x79, 0x6a, 0x1a, 0x42,
  0x76, 0x77, 0x8a, 0x87, 0x76, 0x63, 0x15, 0x49, 0x89, 0x83, 0x81, 0x84,
  0x89, 0x63, 0x07, 0x3b, 0x89, 0x84, 0x88, 0x76, 0x89, 0x62, 0x0a, 0x45,
  0x88, 0x7a, 0x8a, 0x86, 0x86, 0x67, 0x1a, 0x45, 0x81, 0x77, 0x87, 0x87,
  0x85, 0x6e, 0x07, 0x44, 0x7a, 0x88, 0x7d, 0x84, 0x89, 0x6d, 0x11, 0x3f,
  0x81, 0x78, 0x78, 0x89, 0x85, 0x5c, 0x0b, 0x40, 0x83, 0x7a, 0x7b, 0x77,
  0x78, 0x6c, 0x0a, 0x42, 0x88, 0x80, 0x89, 0x86, 0x88, 0x68, 0x16, 0x49,
  0x7d, 0x82, 0x79, 0x7e, 0x7c, 0x58, 0x09, 0x3d, 0x7a, 0x7d, 0x85, 0x87,
  0x7f, 0x5e, 0x1a, 0x45, 0x7d, 0x78, 0x82, 0x82, 0x85, 0x6e, 0x0c, 0x54,
  0x7e, 0x7c, 0x83, 0x7c, 0x76, 0x71, 0x0a, 0x4f, 0x86, 0x83, 0x7d, 0x82,
  0x82, 0x70, 0x16, 0x51, 0x86, 0x7d, 0x86, 0x7f, 0x79, 0x6e, 0x07, 0x63,
  0x7e, 0x7c, 0x7b, 0x80, 0x78, 0x65, 0x11, 0x5c, 0x78, 0x77, 0x8c, 0x85,
  0x81, 0x70, 0x0e, 0x4b, 0x7b, 0x80, 0x80, 0x75, 0x85, 0x5e, 0x18, 0x47,
  0x89, 0x88, 0x8a, 0x85, 0x7b, 0x61, 0x1a, 0x41, 0x7d, 0x77, 0x82, 0x83,
  0x7b, 0x68, 0x10, 0x58, 0x7f, 0x7b, 0x7f, 0x78, 0x77, 0x60, 0x16, 0x50,
  0x75, 0x82, 0x8a, 0x7e, 0x85, 0x5f, 0x0f, 0x4c, 0x7b, 0x85, 0x8a, 0x75,
  0x7e, 0x60, 0x14, 0x54, 0x7c, 0x82, 0x81, 0x7e, 0x7b, 0x63, 0x02, 0x4a,
  0x88, 0x88, 0x81, 0x7d, 0x7e, 0x63, 0x0e, 0x4c, 0x79, 0x7a, 0x78, 0x81,
  0x89, 0x60, 0x13, 0x43, 0x7e, 0x76, 0x79, 0x85, 0x77, 0x68, 0x14, 0x48,
  0x83, 0x77, 0x81, 0x82, 0x76, 0x62, 0x10, 0x4c, 0x81, 0x80, 0x83, 0x85,
  0x89, 0x63, 0x17, 0x4d, 0x7b, 0x83, 0x86, 0x75, 0x7e, 0x61, 0x12, 0x4c,
  0x85, 0x7d, 0x79, 0x77, 0x89, 0x5b, 0x11, 0x4f, 0x79, 0x79, 0x7c, 0x79,
  0x76, 0x69, 0x0b, 0x51, 0x7f, 0x82, 0x7f, 0x76, 0x80, 0x65, 0x14, 0x42,
  0x77, 0x7c, 0x7f, 0x7f, 0x7b, 0x5b, 0x0d, 0x3e, 0x7e, 0x77, 0x86, 0x78,
  0x7a, 0x5f, 0x0a, 0x38, 0x81, 0x82, 0x79, 0x7d, 0x82, 0x5c, 0x10, 0x40,
  0x78, 0x87, 0x83, 0x88, 0x82, 0x5f, 0x05, 0x4b, 0x7c, 0x86, 0x7a, 0x87,
  0x75, 0x5c, 0x0f, 0x47, 0x7b, 0x79, 0x85, 0x7b, 0x86, 0x67, 0x0f, 0x52,
  0x7b, 0x7a, 0x7a, 0x81, 0x84, 0x5a, 0x0e, 0x46, 0x77, 0x7a, 0x7e, 0x7a,
  0x7e, 0x58, 0x19, 0x41, 0x7b, 0x84, 0x7c, 0x80, 0x7b, 0x5e, 0x0c, 0x3e,
  0x7b, 0x78, 0x8b, 0x81, 0x85, 0x62, 0x18, 0x47, 0x77, 0x7a, 0x81, 0x87,
  0x7e, 0x61, 0x1c, 0x46, 0x7b, 0x79, 0x7a, 0x85, 0x7e, 0x6c, 0x15, 0x44,
  0x7c, 0x85, 0x80, 0x87, 0x7d, 0x64, 0x0e, 0x4c, 0x7e, 0x89, 0x87, 0x76,
  0x7d, 0x5b, 0x17, 0x3a, 0x89, 0x82, 0x83, 0x81, 0x7c, 0x69, 0x13, 0x38,
  0x77, 0x84, 0x80, 0x88, 0x82, 0x6e, 0x16, 0x41, 0x81, 0x7a, 0x82, 0x7c,
  0x84, 0x5a, 0x12, 0x33, 0x84, 0x77, 0x89, 0x79, 0x88, 0x62, 0x05, 0x48,
  0x89, 0x84, 0x88, 0x7f, 0x86, 0x67, 0x15, 0x34, 0x87, 0x80, 0x86, 0x88,
  0x78, 0x66, 0x0d, 0x31, 0x85, 0x77, 0x81, 0x85, 0x76, 0x64, 0x1b, 0x2d,
  0x84, 0x78, 0x79, 0x7e, 0x83, 0x59, 0x0a, 0x3a, 0x86, 0x79, 0x7f, 0x77,
  0x80, 0x61, 0x14, 0x37, 0x80, 0x76, 0x8a, 0x7b, 0x81, 0x5a, 0x0a, 0x31,
  0x76, 0x78, 0x82, 0x82, 0x7f, 0x62, 0x0e, 0x3c, 0x81, 0x79, 0x82, 0x78,
  0x89, 0x6a, 0x15, 0x3a, 0x81, 0x83, 0x79, 0x86, 0x7e, 0x5a, 0x13, 0x3f,
  0x85, 0x77, 0x83, 0x80, 0x7c, 0x5d, 0x0d, 0x4b, 0x76, 0x7b, 0x80, 0x89,
  0x81, 0x6b, 0x1a, 0x49, 0x78, 0x85, 0x83, 0x86, 0x75, 0x58, 0x19, 0x4b,
  0x7e, 0x79, 0x85, 0x7d, 0x80, 0x65, 0x12, 0x4c, 0x7a, 0x75, 0x8a, 0x7a,
  0x83, 0x60, 0x0c, 0x3e, 0x81, 0x7f, 0x8b, 0x7f, 0x82, 0x6a, 0x0f, 0x3e,
  0x88, 0x88, 0x8b, 0x89, 0x88, 0x6b, 0x08, 0x36, 0x7d, 0x7c, 0x7d, 0x86,
  0x7e, 0x5b, 0x13, 0x3a, 0x7d, 0x7a, 0x8b, 0x7b, 0x86, 0x5a, 0x13, 0x43,
  0x84, 0x81, 0x8b, 0x76, 0x80, 0x6b, 0x0e, 0x3d, 0x87, 0x88, 0x7c, 0x7b,
  0x85, 0x65, 0x01, 0x40, 0x80, 0x7c, 0x82, 0x80, 0x81, 0x5a, 0x0c, 0x4a,
  0x79, 0x86, 0x89, 0x86, 0x7f, 0x5f, 0x0a, 0x36, 0x76, 0x88, 0x7b, 0x82,
  0x86, 0x63, 0x16, 0x3b, 0x7e, 0x85, 0x8b, 0x7a, 0x84, 0x59, 0x13, 0x4e,
  0x78, 0x85, 0x7a, 0x83, 0x81, 0x6f, 0x16, 0x51, 0x76, 0x82, 0x7a, 0x89,
  0x77, 0x6d, 0x0d, 0x45, 0x78, 0x7e, 0x7c, 0x89, 0x83, 0x5d, 0x0f, 0x49,
  0x76, 0x87, 0x85, 0x7f, 0x80, 0x65, 0x14, 0x5d, 0x85, 0x7b, 0x87, 0x7b,
  0x87, 0x6e, 0x04, 0x5a, 0x7a, 0x79, 0x88, 0x75, 0x79, 0x5e, 0x13, 0x58,
  0x79, 0x81, 0x7e, 0x86, 0x86, 0x65, 0x05, 0x4a, 0x75, 0x81, 0x81, 0x7f,
  0x7a, 0x5e, 0x06, 0x3e, 0x88, 0x87, 0x8b, 0x7a, 0x85, 0x5e, 0x08, 0x4e,
  0x85, 0x88, 0x88, 0x79, 0x84, 0x5e, 0x09, 0x49, 0x86, 0x87, 0x8b, 0x78,
  0x7a, 0x62, 0x12, 0x4e, 0x7b, 0x75, 0x7c, 0x7d, 0x77, 0x5b, 0x09, 0x4c,
  0x83, 0x82, 0x84, 0x7e, 0x78, 0x62, 0x09, 0x3a, 0x7c, 0x7e, 0x84, 0x76,
  0x88, 0x65, 0x09, 0x40, 0x80, 0x81, 0x8b, 0x79, 0x7d, 0x5c, 0x18, 0x4b,
  0x85, 0x7b, 0x7c, 0x87, 0x88, 0x61, 0x14, 0x41, 0x81, 0x88, 0x80, 0x85,
  0x85, 0x65, 0x0f, 0x46, 0x77, 0x7d, 0x88, 0x84, 0x83, 0x62, 0x17, 0x44,
  0x7a, 0x82, 0x8c, 0x75, 0x79, 0x58, 0x0c, 0x3e, 0x7d, 0x7c, 0x7c, 0x7b,
  0x86, 0x64, 0x15, 0x3f, 0x7c, 0x7c, 0x81, 0x83, 0x86, 0x5e, 0x00, 0x3c,
  0x7d, 0x86, 0x7e, 0x78, 0x75, 0x65, 0x0b, 0x3b, 0x83, 0x83, 0x7f, 0x76,
  0x7c, 0x66, 0x0b, 0x3a, 0x83, 0x84, 0x77, 0x7c, 0x86, 0x6b, 0x09, 0x35,
  0x84, 0x76, 0x87, 0x75, 0x80, 0x6a, 0x15, 0x34, 0x82, 0x75, 0x8a, 0x85,
  0x79, 0x5d, 0x15, 0x42, 0x7f, 0x80, 0x7a, 0x88, 0x83, 0x64, 0x0e, 0x3b,
  0x88, 0x83, 0x76, 0x7c, 0x7d, 0x69, 0x0f, 0x3e, 0x84, 0x7f, 0x85, 0x88,
  0x86, 0x69, 0x13, 0x40, 0x76, 0x79, 0x89, 0x7e, 0x7c, 0x6a, 0x16, 0x4a,
  0x85, 0x7b, 0x8a, 0x7f, 0x75, 0x57, 0x0b, 0x3e, 0x82, 0x80, 0x8b, 0x76,
  0x78, 0x6c, 0x04, 0x3d, 0x77, 0x75, 0x80, 0x7d, 0x6f, 0x5e, 0x7e, 0x78,
  0x10, 0xf9, 0xff, 0xff, 0x14, 0xf9, 0xff, 0xff, 0x18, 0xf9, 0xff, 0xff,
  0x1c, 0xf9, 0xff, 0xff, 0x20, 0xf9, 0xff, 0xff, 0x26, 0xf8, 0xff, 0xff,
  0x04, 0x00, 0x00, 0x00, 0x10, 0x00, 0x00, 0x00, 0x01, 0x00, 0x00, 0x00,
  0x01, 0x00, 0x00, 0x00, 0x80, 0x00, 0x00, 0x00, 0x03, 0x00, 0x00, 0x00,
  0x42, 0xf8, 0xff, 0xff, 0x04, 0x00, 0x00, 0x00, 0x0c, 0x00, 0x00, 0x00,
  0x01, 0x00, 0x00, 0x00, 0x80, 0x00, 0x00, 0x00, 0x08, 0x00, 0x00, 0x00,
  0x5a, 0xf8, 0xff, 0xff, 0x04, 0x00, 0x00, 0x00, 0x48, 0x00, 0x00, 0x00,
  0xa6, 0x39, 0x4f, 0x6b, 0xa2, 0x54, 0x5a, 0x3c, 0xa2, 0x76, 0xd1, 0x1c,
  0xc8, 0xb2, 0xb4, 0x74, 0x68, 0x7c, 0xa5, 0x68, 0xd7, 0xb3, 0x9d, 0x2b,
  0x6b, 0x8b, 0xe5, 0x52, 0xa5, 0x21, 0x69, 0xad, 0x21, 0x4f, 0x8a, 0x9f,
  0x4d, 0xd6, 0x90, 0x8c, 0x5f, 0x77, 0x47, 0x6e, 0x44, 0x4c, 0xff, 0x8d,
  0x4d, 0xe8, 0x1d, 0x58, 0x74, 0xba, 0x6c, 0x7c, 0x47, 0xf1, 0x17, 0x96,
  0xfd, 0x6c, 0x84, 0x00, 0x4a, 0x71, 0x94, 0x7d, 0xd8, 0x54, 0xf7, 0x7a,
  0xae, 0xf8, 0xff, 0xff, 0x04, 0x00, 0x00, 0x00, 0x20, 0x00, 0x00, 0x00,
  0x00, 0x00, 0x00, 0x00, 0x32, 0xe6, 0xff, 0xff, 0x45, 0x08, 0x00, 0x00,
  0x33, 0xfc, 0xff, 0xff, 0x48, 0xfd, 0xff, 0xff, 0x76, 0xf8, 0xff, 0xff,
  0xfd, 0xdc, 0xff, 0xff, 0xa9, 0x15, 0x00, 0x00, 0xda, 0xf8, 0xff, 0xff,
  0x04, 0x00, 0x00, 0x00, 0x08, 0x00, 0x00, 0x00, 0x80, 0xf9, 0xff, 0xff,
  0x80, 0x06, 0x00, 0x00, 0xec, 0xf9, 0xff, 0xff, 0x90, 0xfb, 0xff, 0xff,
  0x20, 0x00, 0x00, 0x00, 0x14, 0x00, 0x00, 0x00, 0x08, 0x00, 0x00, 0x00,
  0x78, 0x05, 0x00, 0x00, 0x01, 0x00, 0x00, 0x00, 0x0b, 0x00, 0x00, 0x00,
  0x01, 0x00, 0x00, 0x00, 0x0a, 0x00, 0x00, 0x00, 0x0c, 0x00, 0x00, 0x00,
  0x30, 0x00, 0x00, 0x00, 0x1c, 0x01, 0x00, 0x00, 0x00, 0x02, 0x00, 0x00,
  0x60, 0x03, 0x00, 0x00, 0xec, 0x03, 0x00, 0x00, 0xa4, 0x03, 0x00, 0x00,
  0x74, 0x04, 0x00, 0x00, 0x70, 0x02, 0x00, 0x00, 0xd8, 0x04, 0x00, 0x00,
  0x80, 0x00, 0x00, 0x00, 0x6c, 0x01, 0x00, 0x00, 0xd0, 0x02, 0x00, 0x00,
  0x46, 0xfb, 0xff, 0xff, 0x00, 0x00, 0x00, 0x03, 0x10, 0x00, 0x00, 0x00,
  0x0c, 0x00, 0x00, 0x00, 0x18, 0x00, 0x00, 0x00, 0x28, 0x00, 0x00, 0x00,
  0x03, 0x00, 0x00, 0x00, 0x01, 0x00, 0x00, 0x00, 0x80, 0x00, 0x00, 0x00,
  0x08, 0x00, 0x00, 0x00, 0x0e, 0x00, 0x00, 0x00, 0x63, 0x6f, 0x6e, 0x76,
  0x31, 0x64, 0x2f, 0x42, 0x69, 0x61, 0x73, 0x41, 0x64, 0x64, 0x00, 0x00,
  0x24, 0xfc, 0xff, 0xff, 0x2c, 0x00, 0x00, 0x00, 0x20, 0x00, 0x00, 0x00,
  0x14, 0x00, 0x00, 0x00, 0x04, 0x00, 0x00, 0x00, 0x01, 0x00, 0x00, 0x00,
  0x00, 0x00, 0x00, 0x00, 0x00, 0x00, 0x00, 0x00, 0x01, 0x00, 0x00, 0x00,
  0x81, 0x80, 0x80, 0x3b, 0x01, 0x00, 0x00, 0x00, 0x00, 0x00, 0x80, 0x3f,
  0x01, 0x00, 0x00, 0x00, 0x00, 0x00, 0x00, 0x00, 0xba, 0xfb, 0xff, 0xff,
  0x00, 0x00, 0x00, 0x03, 0x10, 0x00, 0x00, 0x00, 0x0b, 0x00, 0x00, 0x00,
  0x14, 0x00, 0x00, 0x00, 0x2c, 0x00, 0x00, 0x00, 0x02, 0x00, 0x00, 0x00,
  0x02, 0x00, 0x00, 0x00, 0x00, 0x04, 0x00, 0x00, 0x16, 0x00, 0x00, 0x00,
  0x64, 0x65, 0x6e, 0x73, 0x65, 0x2f, 0x6b, 0x65, 0x72, 0x6e, 0x65, 0x6c,
  0x2f, 0x74, 0x72, 0x61, 0x6e, 0x73, 0x70, 0x6f, 0x73, 0x65, 0x00, 0x00,
  0x9c, 0xfc, 0xff, 0xff, 0x30, 0x00, 0x00, 0x00, 0x24, 0x00, 0x00, 0x00,
  0x18, 0x00, 0x00, 0x00, 0x04, 0x00, 0x00, 0x00, 0x01, 0x00, 0x00, 0x00,
  0x7f, 0x00, 0x00, 0x00, 0x00, 0x00, 0x00, 0x00, 0x00, 0x00, 0x00, 0x00,
  0x01, 0x00, 0x00, 0x00, 0x88, 0xc1, 0xf2, 0x3b, 0x01, 0x00, 0x00, 0x00,
  0xf5, 0x49, 0x73, 0x3f, 0x01, 0x00, 0x00, 0x00, 0x98, 0x53, 0x70, 0xbf,
  0x36, 0xfc, 0xff, 0xff, 0x00, 0x00, 0x00, 0x03, 0x10, 0x00, 0x00, 0x00,
  0x0a, 0x00, 0x00, 0x00, 0x1c, 0x00, 0x00, 0x00, 0x28, 0x00, 0x00, 0x00,
  0x04, 0x00, 0x00, 0x00, 0x01, 0x00, 0x00, 0x00, 0x01, 0x00, 0x00, 0x00,
  0x80, 0x00, 0x00, 0x00, 0x08, 0x00, 0x00, 0x00, 0x0b, 0x00, 0x00, 0x00,
  0x63, 0x6f, 0x6e, 0x76, 0x31, 0x64, 0x2f, 0x52, 0x65, 0x6c, 0x75, 0x00,
  0x14, 0xfd, 0xff, 0xff, 0x2c, 0x00, 0x00, 0x00, 0x20, 0x00, 0x00, 0x00,
  0x14, 0x00, 0x00, 0x00, 0x04, 0x00, 0x00, 0x00, 0x01, 0x00, 0x00, 0x00,
  0x00, 0x00, 0x00, 0x00, 0x00, 0x00, 0x00, 0x00, 0x01, 0x00, 0x00, 0x00,
  0x81, 0x80, 0x80, 0x3b, 0x01, 0x00, 0x00, 0x00, 0x00, 0x00, 0x80, 0x3f,
  0x01, 0x00, 0x00, 0x00, 0x00, 0x00, 0x00, 0x00, 0xaa, 0xfc, 0xff, 0xff,
  0x00, 0x00, 0x00, 0x03, 0x10, 0x00, 0x00, 0x00, 0x09, 0x00, 0x00, 0x00,
  0x18, 0x00, 0x00, 0x00, 0x24, 0x00, 0x00, 0x00, 0x03, 0x00, 0x00, 0x00,
  0x01, 0x00, 0x00, 0x00, 0x80, 0x00, 0x00, 0x00, 0x03, 0x00, 0x00, 0x00,
  0x0b, 0x00, 0x00, 0x00, 0x6d, 0x61, 0x69, 0x6e, 0x5f, 0x69, 0x6e, 0x70,
  0x75, 0x74, 0x31, 0x00, 0x84, 0xfd, 0xff, 0xff, 0x30, 0x00, 0x00, 0x00,
  0x24, 0x00, 0x00, 0x00, 0x18, 0x00, 0x00, 0x00, 0x04, 0x00, 0x00, 0x00,
  0x01, 0x00, 0x00, 0x00, 0x00, 0x00, 0x00, 0x00, 0x00, 0x00, 0x00, 0x00,
  0x00, 0x00, 0x00, 0x00, 0x01, 0x00, 0x00, 0x00, 0x81, 0x80, 0x80, 0x3b,
  0x01, 0x00, 0x00, 0x00, 0x00, 0x00, 0x80, 0x3f, 0x01, 0x00, 0x00, 0x00,
  0x00, 0x00, 0x00, 0x00, 0x1e, 0xfd, 0xff, 0xff, 0x00, 0x00, 0x00, 0x03,
  0x10, 0x00, 0x00, 0x00, 0x08, 0x00, 0x00, 0x00, 0x1c, 0x00, 0x00, 0x00,
  0x38, 0x00, 0x00, 0x00, 0x04, 0x00, 0x00, 0x00, 0x01, 0x00, 0x00, 0x00,
  0x01, 0x00, 0x00, 0x00, 0x80, 0x00, 0x00, 0x00, 0x03, 0x00, 0x00, 0x00,
  0x18, 0x00, 0x00, 0x00, 0x63, 0x6f, 0x6e, 0x76, 0x31, 0x64, 0x2f, 0x63,
  0x6f, 0x6e, 0x76, 0x31, 0x64, 0x2f, 0x45, 0x78, 0x70, 0x61, 0x6e, 0x64,
  0x44, 0x69, 0x6d, 0x73, 0x00, 0x00, 0x00, 0x00, 0x0c, 0xfe, 0xff, 0xff,
  0x2c, 0x00, 0x00, 0x00, 0x20, 0x00, 0x00, 0x00, 0x14, 0x00, 0x00, 0x00,
  0x04, 0x00, 0x00, 0x00, 0x01, 0x00, 0x00, 0x00, 0x00, 0x00, 0x00, 0x00,
  0x00, 0x00, 0x00, 0x00, 0x01, 0x00, 0x00, 0x00, 0x81, 0x80, 0x80, 0x3b,
  0x01, 0x00, 0x00, 0x00, 0x00, 0x00, 0x80, 0x3f, 0x01, 0x00, 0x00, 0x00,
  0x00, 0x00, 0x00, 0x00, 0xa2, 0xfd, 0xff, 0xff, 0x00, 0x00, 0x00, 0x03,
  0x10, 0x00, 0x00, 0x00, 0x07, 0x00, 0x00, 0x00, 0x14, 0x00, 0x00, 0x00,
  0x24, 0x00, 0x00, 0x00, 0x02, 0x00, 0x00, 0x00, 0x01, 0x00, 0x00, 0x00,
  0x02, 0x00, 0x00, 0x00, 0x0d, 0x00, 0x00, 0x00, 0x64, 0x65, 0x6e, 0x73,
  0x65, 0x2f, 0x42, 0x69, 0x61, 0x73, 0x41, 0x64, 0x64, 0x00, 0x00, 0x00,
  0x7c, 0xfe, 0xff, 0xff, 0x2c, 0x00, 0x00, 0x00, 0x20, 0x00, 0x00, 0x00,
  0x14, 0x00, 0x00, 0x00, 0x04, 0x00, 0x00, 0x00, 0x01, 0x00, 0x00, 0x00,
  0x00, 0x00, 0x00, 0x00, 0x00, 0x00, 0x00, 0x00, 0x01, 0x00, 0x00, 0x00,
  0x81, 0x80, 0x80, 0x3b, 0x01, 0x00, 0x00, 0x00, 0x00, 0x00, 0x80, 0x3f,
  0x01, 0x00, 0x00, 0x00, 0x00, 0x00, 0x00, 0x00, 0x12, 0xfe, 0xff, 0xff,
  0x00, 0x00, 0x00, 0x03, 0x10, 0x00, 0x00, 0x00, 0x06, 0x00, 0x00, 0x00,
  0x14, 0x00, 0x00, 0x00, 0x24, 0x00, 0x00, 0x00, 0x02, 0x00, 0x00, 0x00,
  0x01, 0x00, 0x00, 0x00, 0x02, 0x00, 0x00, 0x00, 0x0f, 0x00, 0x00, 0x00,
  0x73, 0x6f, 0x66, 0x74, 0x6d, 0x61, 0x78, 0x2f, 0x53, 0x6f, 0x66, 0x74,
  0x6d, 0x61, 0x78, 0x00, 0xec, 0xfe, 0xff, 0xff, 0x2c, 0x00, 0x00, 0x00,
  0x20, 0x00, 0x00, 0x00, 0x14, 0x00, 0x00, 0x00, 0x04, 0x00, 0x00, 0x00,
  0x01, 0x00, 0x00, 0x00, 0x00, 0x00, 0x00, 0x00, 0x00, 0x00, 0x00, 0x00,
  0x01, 0x00, 0x00, 0x00, 0x00, 0x00, 0x80, 0x3b, 0x01, 0x00, 0x00, 0x00,
  0x00, 0x00, 0x7f, 0x3f, 0x01, 0x00, 0x00, 0x00, 0x00, 0x00, 0x00, 0x00,
  0x82, 0xfe, 0xff, 0xff, 0x00, 0x00, 0x00, 0x02, 0x10, 0x00, 0x00, 0x00,
  0x05, 0x00, 0x00, 0x00, 0x14, 0x00, 0x00, 0x00, 0x34, 0x00, 0x00, 0x00,
  0x02, 0x00, 0x00, 0x00, 0x01, 0x00, 0x00, 0x00, 0x04, 0x00, 0x00, 0x00,
  0x1e, 0x00, 0x00, 0x00, 0x63, 0x6f, 0x6e, 0x76, 0x31, 0x64, 0x2f, 0x63,
  0x6f, 0x6e, 0x76, 0x31, 0x64, 0x2f, 0x45, 0x78, 0x70, 0x61, 0x6e, 0x64,
  0x44, 0x69, 0x6d, 0x73, 0x2f, 0x64, 0x69, 0x6d, 0x5f, 0x30, 0x00, 0x00,
  0xcc, 0xfd, 0xff, 0xff, 0xce, 0xfe, 0xff, 0xff, 0x00, 0x00, 0x00, 0x02,
  0x10, 0x00, 0x00, 0x00, 0x04, 0x00, 0x00, 0x00, 0x10, 0x00, 0x00, 0x00,
  0x2c, 0x00, 0x00, 0x00, 0x01, 0x00, 0x00, 0x00, 0x03, 0x00, 0x00, 0x00,
  0x1b, 0x00, 0x00, 0x00, 0x63, 0x6f, 0x6e, 0x76, 0x31, 0x64, 0x2f, 0x63,
  0x6f, 0x6e, 0x76, 0x31, 0x64, 0x2f, 0x53, 0x71, 0x75, 0x65, 0x65, 0x7a,
  0x65, 0x5f, 0x73, 0x68, 0x61, 0x70, 0x65, 0x00, 0x10, 0xfe, 0xff, 0xff,
  0x12, 0xff, 0xff, 0xff, 0x00, 0x00, 0x00, 0x03, 0x10, 0x00, 0x00, 0x00,
  0x03, 0x00, 0x00, 0x00, 0x1c, 0x00, 0x00, 0x00, 0x44, 0x00, 0x00, 0x00,
  0x04, 0x00, 0x00, 0x00, 0x08, 0x00, 0x00, 0x00, 0x01, 0x00, 0x00, 0x00,
  0x03, 0x00, 0x00, 0x00, 0x03, 0x00, 0x00, 0x00, 0x1a, 0x00, 0x00, 0x00,
  0x63, 0x6f, 0x6e, 0x76, 0x31, 0x64, 0x2f, 0x63, 0x6f, 0x6e, 0x76, 0x31,
  0x64, 0x2f, 0x45, 0x78, 0x70, 0x61, 0x6e, 0x64, 0x44, 0x69, 0x6d, 0x73,
  0x5f, 0x31, 0x00, 0x00, 0x0c, 0x00, 0x14, 0x00, 0x04, 0x00, 0x08, 0x00,
  0x0c, 0x00, 0x10, 0x00, 0x0c, 0x00, 0x00, 0x00, 0x2c, 0x00, 0x00, 0x00,
  0x20, 0x00, 0x00, 0x00, 0x14, 0x00, 0x00, 0x00, 0x04, 0x00, 0x00, 0x00,
  0x01, 0x00, 0x00, 0x00, 0x82, 0x00, 0x00, 0x00, 0x00, 0x00, 0x00, 0x00,
  0x01, 0x00, 0x00, 0x00, 0xc0, 0xe9, 0x8e, 0x3b, 0x01, 0x00, 0x00, 0x00,
  0xb9, 0x9e, 0x0b, 0x3f, 0x01, 0x00, 0x00, 0x00, 0xf3, 0x16, 0x11, 0xbf,
  0xa2, 0xff, 0xff, 0xff, 0x00, 0x00, 0x00, 0x02, 0x10, 0x00, 0x00, 0x00,
  0x02, 0x00, 0x00, 0x00, 0x10, 0x00, 0x00, 0x00, 0x24, 0x00, 0x00, 0x00,
  0x01, 0x00, 0x00, 0x00, 0x08, 0x00, 0x00, 0x00, 0x12, 0x00, 0x00, 0x00,
  0x63, 0x6f, 0x6e, 0x76, 0x31, 0x64, 0x2f, 0x63, 0x6f, 0x6e, 0x76, 0x31,
  0x64, 0x5f, 0x62, 0x69, 0x61, 0x73, 0x00, 0x00, 0x94, 0xff, 0xff, 0xff,
  0x18, 0x00, 0x00, 0x00, 0x04, 0x00, 0x00, 0x00, 0x01, 0x00, 0x00, 0x00,
  0x00, 0x00, 0x00, 0x00, 0x00, 0x00, 0x00, 0x00, 0x00, 0x00, 0x00, 0x00,
  0x01, 0x00, 0x00, 0x00, 0x39, 0x79, 0x8f, 0x37, 0x00, 0x00, 0x0e, 0x00,
  0x18, 0x00, 0x08, 0x00, 0x07, 0x00, 0x0c, 0x00, 0x10, 0x00, 0x14, 0x00,
  0x0e, 0x00, 0x00, 0x00, 0x00, 0x00, 0x00, 0x02, 0x10, 0x00, 0x00, 0x00,
  0x01, 0x00, 0x00, 0x00, 0x10, 0x00, 0x00, 0x00, 0x30, 0x00, 0x00, 0x00,
  0x01, 0x00, 0x00, 0x00, 0x02, 0x00, 0x00, 0x00, 0x11, 0x00, 0x00, 0x00,
  0x64, 0x65, 0x6e, 0x73, 0x65, 0x2f, 0x4d, 0x61, 0x74, 0x4d, 0x75, 0x6c,
  0x5f, 0x62, 0x69, 0x61, 0x73, 0x00, 0x00, 0x00, 0x0c, 0x00, 0x0c, 0x00,
  0x00, 0x00, 0x00, 0x00, 0x04, 0x00, 0x08, 0x00, 0x0c, 0x00, 0x00, 0x00,
  0x18, 0x00, 0x00, 0x00, 0x04, 0x00, 0x00, 0x00, 0x01, 0x00, 0x00, 0x00,
  0x00, 0x00, 0x00, 0x00, 0x00, 0x00, 0x00, 0x00, 0x00, 0x00, 0x00, 0x00,
  0x01, 0x00, 0x00, 0x00, 0x3d, 0xb5, 0xf3, 0x37, 0x05, 0x00, 0x00, 0x00,
  0x4c, 0x01, 0x00, 0x00, 0xe8, 0x00, 0x00, 0x00, 0x84, 0x00, 0x00, 0x00,
  0x40, 0x00, 0x00, 0x00, 0x04, 0x00, 0x00, 0x00, 0xdc, 0xfe, 0xff, 0xff,
  0x00, 0x00, 0x00, 0x09, 0x03, 0x00, 0x00, 0x00, 0x10, 0x00, 0x00, 0x00,
  0x14, 0x00, 0x00, 0x00, 0x1c, 0x00, 0x00, 0x00, 0x14, 0x00, 0x00, 0x00,
  0x01, 0x00, 0x00, 0x00, 0x07, 0x00, 0x00, 0x00, 0x01, 0x00, 0x00, 0x00,
  0x0b, 0x00, 0x00, 0x00, 0x00, 0x00, 0x00, 0x00, 0xc2, 0xfe, 0xff, 0xff,
  0x00, 0x00, 0x80, 0x3f, 0x14, 0xff, 0xff, 0xff, 0x00, 0x00, 0x00, 0x08,
  0x01, 0x00, 0x00, 0x00, 0x10, 0x00, 0x00, 0x00, 0x1c, 0x00, 0x00, 0x00,
  0x28, 0x00, 0x00, 0x00, 0x1c, 0x00, 0x00, 0x00, 0x03, 0x00, 0x00, 0x00,
  0x00, 0x00, 0x00, 0x00, 0x09, 0x00, 0x00, 0x00, 0x08, 0x00, 0x00, 0x00,
  0x01, 0x00, 0x00, 0x00, 0x07, 0x00, 0x00, 0x00, 0x00, 0x00, 0x00, 0x00,
  0x04, 0x00, 0x04, 0x00, 0x04, 0x00, 0x00, 0x00, 0x54, 0xff, 0xff, 0xff,
  0x00, 0x00, 0x00, 0x11, 0x02, 0x00, 0x00, 0x00, 0x10, 0x00, 0x00, 0x00,
  0x18, 0x00, 0x00, 0x00, 0x20, 0x00, 0x00, 0x00, 0x18, 0x00, 0x00, 0x00,
  0x02, 0x00, 0x00, 0x00, 0x01, 0x00, 0x00, 0x00, 0x05, 0x00, 0x00, 0x00,
  0x01, 0x00, 0x00, 0x00, 0x00, 0x00, 0x00, 0x00, 0x00, 0x00, 0x00, 0x00,
  0x3e, 0xff, 0xff, 0xff, 0x04, 0x00, 0x00, 0x00, 0x03, 0x00, 0x00, 0x00,
  0x01, 0x00, 0x00, 0x00, 0x80, 0x00, 0x00, 0x00, 0x08, 0x00, 0x00, 0x00,
  0x14, 0x00, 0x18, 0x00, 0x00, 0x00, 0x08, 0x00, 0x0c, 0x00, 0x07, 0x00,
  0x10, 0x00, 0x00, 0x00, 0x00, 0x00, 0x14, 0x00, 0x14, 0x00, 0x00, 0x00,
  0x00, 0x00, 0x00, 0x01, 0x10, 0x00, 0x00, 0x00, 0x1c, 0x00, 0x00, 0x00,
  0x30, 0x00, 0x00, 0x00, 0x1c, 0x00, 0x00, 0x00, 0x03, 0x00, 0x00, 0x00,
  0x02, 0x00, 0x00, 0x00, 0x04, 0x00, 0x00, 0x00, 0x06, 0x00, 0x00, 0x00,
  0x01, 0x00, 0x00, 0x00, 0x01, 0x00, 0x00, 0x00, 0x00, 0x00, 0x00, 0x00,
  0x00, 0x00, 0x0a, 0x00, 0x0c, 0x00, 0x00, 0x00, 0x04, 0x00, 0x08, 0x00,
  0x0a, 0x00, 0x00, 0x00, 0x01, 0x00, 0x00, 0x00, 0x01, 0x00, 0x00, 0x00,
  0x14, 0x00, 0x1c, 0x00, 0x08, 0x00, 0x0c, 0x00, 0x10, 0x00, 0x07, 0x00,
  0x14, 0x00, 0x00, 0x00, 0x00, 0x00, 0x18, 0x00, 0x14, 0x00, 0x00, 0x00,
  0x00, 0x00, 0x00, 0x11, 0x02, 0x00, 0x00, 0x00, 0x10, 0x00, 0x00, 0x00,
  0x18, 0x00, 0x00, 0x00, 0x28, 0x00, 0x00, 0x00, 0x18, 0x00, 0x00, 0x00,
  0x02, 0x00, 0x00, 0x00, 0x0a, 0x00, 0x00, 0x00, 0x03, 0x00, 0x00, 0x00,
  0x01, 0x00, 0x00, 0x00, 0x02, 0x00, 0x00, 0x00, 0x00, 0x00, 0x00, 0x00,
  0x00, 0x00, 0x06, 0x00, 0x08, 0x00, 0x04, 0x00, 0x06, 0x00, 0x00, 0x00,
  0x04, 0x00, 0x00, 0x00, 0x04, 0x00, 0x00, 0x00, 0x01, 0x00, 0x00, 0x00,
  0x01, 0x00, 0x00, 0x00, 0x80, 0x00, 0x00, 0x00, 0x03, 0x00, 0x00, 0x00,
  0x04, 0x00, 0x00, 0x00, 0x2c, 0x00, 0x00, 0x00, 0x14, 0x00, 0x00, 0x00,
  0x18, 0x00, 0x00, 0x00, 0x04, 0x00, 0x00, 0x00, 0xde, 0xff, 0xff, 0xff,
  0x00, 0x00, 0x00, 0x19, 0xe6, 0xff, 0xff, 0xff, 0x00, 0x00, 0x00, 0x09,
  0xfa, 0xff, 0xff, 0xff, 0x00, 0x16, 0x06, 0x00, 0x06, 0x00, 0x05, 0x00,
  0x06, 0x00, 0x00, 0x00, 0x00, 0x03, 0x06, 0x00, 0x08, 0x00, 0x07, 0x00,
  0x06, 0x00, 0x00, 0x00, 0x00, 0x00, 0x00, 0x16
};
const unsigned int model_tflite_len = 4328;
